{
  "version": "1.0",
  "truncation": null,
  "padding": null,
  "added_tokens": [
    {
      "id": 0,
      "content": "[PAD]",
      "single_word": false,
      "lstrip": false,
      "rstrip": false,
      "normalized": false,
      "special": true
    },
    {
      "id": 1,
      "content": "[UNK]",
      "single_word": false,
      "lstrip": false,
      "rstrip": false,
      "normalized": false,
      "special": true
    },
    {
      "id": 2,
      "content": "[BOS]",
      "single_word": false,
      "lstrip": false,
      "rstrip": false,
      "normalized": false,
      "special": true
    },
    {
      "id": 3,
      "content": "[EOS]",
      "single_word": false,
      "lstrip": false,
      "rstrip": false,
      "normalized": false,
      "special": true
    },
    {
      "id": 4,
      "content": "[MASK]",
      "single_word": false,
      "lstrip": false,
      "rstrip": false,
      "normalized": false,
      "special": true
    }
  ],
  "normalizer": null,
  "pre_tokenizer": {
    "type": "ByteLevel",
    "add_prefix_space": false,
    "trim_offsets": true,
    "use_regex": true
  },
  "post_processor": {
    "type": "TemplateProcessing",
    "single": [
      {
        "SpecialToken": {
          "id": "[BOS]",
          "type_id": 0
        }
      },
      {
        "Sequence": {
          "id": "A",
          "type_id": 0
        }
      },
      {
        "SpecialToken": {
          "id": "[EOS]",
          "type_id": 0
        }
      }
    ],
    "pair": [
      {
        "Sequence": {
          "id": "A",
          "type_id": 0
        }
      },
      {
        "Sequence": {
          "id": "B",
          "type_id": 1
        }
      }
    ],
    "special_tokens": {
      "[BOS]": {
        "id": "[BOS]",
        "ids": [
          2
        ],
        "tokens": [
          "[BOS]"
        ]
      },
      "[EOS]": {
        "id": "[EOS]",
        "ids": [
          3
        ],
        "tokens": [
          "[EOS]"
        ]
      }
    }
  },
  "decoder": {
    "type": "ByteLevel",
    "add_prefix_space": true,
    "trim_offsets": true,
    "use_regex": true
  },
  "model": {
    "type": "BPE",
    "dropout": null,
    "unk_token": "[UNK]",
    "continuing_subword_prefix": null,
    "end_of_word_suffix": null,
    "fuse_unk": false,
    "byte_fallback": false,
    "ignore_merges": false,
    "vocab": {
      "[PAD]": 0,
      "[UNK]": 1,
      "[BOS]": 2,
      "[EOS]": 3,
      "[MASK]": 4,
      "\"": 5,
      "'": 6,
      "(": 7,
      ")": 8,
      "+": 9,
      ",": 10,
      "-": 11,
      ".": 12,
      "/": 13,
      "0": 14,
      "1": 15,
      "2": 16,
      "3": 17,
      "4": 18,
      "5": 19,
      "6": 20,
      "7": 21,
      "8": 22,
      "9": 23,
      ":": 24,
      ";": 25,
      "<": 26,
      "=": 27,
      ">": 28,
      "A": 29,
      "B": 30,
      "C": 31,
      "D": 32,
      "E": 33,
      "F": 34,
      "G": 35,
      "H": 36,
      "I": 37,
      "J": 38,
      "K": 39,
      "L": 40,
      "M": 41,
      "N": 42,
      "O": 43,
      "P": 44,
      "Q": 45,
      "R": 46,
      "S": 47,
      "T": 48,
      "U": 49,
      "V": 50,
      "W": 51,
      "X": 52,
      "Y": 53,
      "Z": 54,
      "[": 55,
      "\\": 56,
      "]": 57,
      "_": 58,
      "`": 59,
      "a": 60,
      "b": 61,
      "c": 62,
      "d": 63,
      "e": 64,
      "f": 65,
      "g": 66,
      "h": 67,
      "i": 68,
      "j": 69,
      "k": 70,
      "l": 71,
      "m": 72,
      "n": 73,
      "o": 74,
      "p": 75,
      "q": 76,
      "r": 77,
      "s": 78,
      "t": 79,
      "u": 80,
      "v": 81,
      "w": 82,
      "x": 83,
      "y": 84,
      "z": 85,
      "{": 86,
      "|": 87,
      "}": 88,
      "~": 89,
      "Ġ": 90,
      "Ġ<": 91,
      "IN": 92,
      "NE": 93,
      "XT": 94,
      "NEXT": 95,
      "ST": 96,
      "UT": 97,
      "PUT": 98,
      "INPUT": 99,
      "in": 100,
      "STR": 101,
      "INSTR": 102,
      "Ġa": 103,
      "er": 104,
      "Ġs": 105,
      "Ġc": 106,
      "Ġt": 107,
      "re": 108,
      "Ġo": 109,
      "AR": 110,
      "EN": 111,
      "END": 112,
      "STAR": 113,
      "START": 114,
      "nd": 115,
      "Ġb": 116,
      "es": 117,
      "Ġm": 118,
      "he": 119,
      "il": 120,
      "Ġp": 121,
      "Ġand": 122,
      "at": 123,
      "ar": 124,
      "ut": 125,
      "Ġw": 126,
      "Ġin": 127,
      "Ġf": 128,
      "on": 129,
      "Ġto": 130,
      "ou": 131,
      "an": 132,
      "RE": 133,
      "IP": 134,
      "LE": 135,
      "IT": 136,
      "REC": 137,
      "IPE": 138,
      "RECIPE": 139,
      "TIT": 140,
      "TITLE": 141,
      "ing": 142,
      "en": 143,
      "ed": 144,
      "ic": 145,
      "al": 146,
      "le": 147,
      "it": 148,
      "ĠC": 149,
      "Ġthe": 150,
      "ĠS": 151,
      "or": 152,
      "ro": 153,
      "as": 154,
      "gar": 155,
      "ak": 156,
      "Ġon": 157,
      "dd": 158,
      "our": 159,
      "ĠP": 160,
      "Ġco": 161,
      "Ġu": 162,
      "Ġd": 163,
      "el": 164,
      "ĠB": 165,
      "is": 166,
      "ith": 167,
      "ac": 168,
      "pp": 169,
      "ix": 170,
      "am": 171,
      "Ġwith": 172,
      "Ġ1": 173,
      "Ġun": 174,
      "Ġg": 175,
      "til": 176,
      "ter": 177,
      "Ġe": 178,
      "ow": 179,
      "Ġl": 180,
      "ĠA": 181,
      "Ġch": 182,
      "Ġmin": 183,
      "ge": 184,
      "Ġuntil": 185,
      "ver": 186,
      "ve": 187,
      "ot": 188,
      "ol": 189,
      "Ġsu": 190,
      "Ġsal": 191,
      "Ġpe": 192,
      "Ġminut": 193,
      "Ġh": 194,
      "ine": 195,
      "Ġsugar": 196,
      "ion": 197,
      "Ġfor": 198,
      "to": 199,
      "Ġminutes": 200,
      "ake": 201,
      "Ġsalt": 202,
      "Ġmix": 203,
      "Ġof": 204,
      "ĠM": 205,
      "ir": 206,
      "ad": 207,
      "ĠCo": 208,
      "ok": 209,
      "utter": 210,
      "Ġ3": 211,
      "uc": 212,
      "ĠAdd": 213,
      "ick": 214,
      "ese": 215,
      "ill": 216,
      "heese": 217,
      "Ġbutter": 218,
      "gg": 219,
      "ra": 220,
      "red": 221,
      "Ġst": 222,
      "ice": 223,
      "Ġfl": 224,
      "Ġor": 225,
      "ly": 226,
      "pper": 227,
      "ream": 228,
      "Ġcheese": 229,
      "Ġegg": 230,
      "Ġbe": 231,
      "us": 232,
      "Ġonion": 233,
      "gh": 234,
      "et": 235,
      "Ġpepper": 236,
      "ri": 237,
      "uce": 238,
      "Ġsa": 239,
      "Ġinto": 240,
      "ts": 241,
      "um": 242,
      "heat": 243,
      "ato": 244,
      "ĠR": 245,
      "Ġover": 246,
      "ater": 247,
      "Ġwater": 248,
      "ĠT": 249,
      "Ġcream": 250,
      "ch": 251,
      "Ġre": 252,
      "Ġbro": 253,
      "Ġ2": 254,
      "icken": 255,
      "ilk": 256,
      "ure": 257,
      "Ġflour": 258,
      "Ġv": 259,
      "Ġle": 260,
      "Ġj": 261,
      "ell": 262,
      "Ġn": 263,
      "ll": 264,
      "Ġoil": 265,
      "ast": 266,
      "Ġcook": 267,
      "Ġsauce": 268,
      "lic": 269,
      "Ġmilk": 270,
      "lac": 271,
      "Ġat": 272,
      "ate": 273,
      "ĠI": 274,
      "ĠD": 275,
      "th": 276,
      "wn": 277,
      "Ġpan": 278,
      "Ġsp": 279,
      "ture": 280,
      "Ġth": 281,
      "ry": 282,
      "eat": 283,
      "Ġheat": 284,
      "Ġmixture": 285,
      "im": 286,
      "Ġcr": 287,
      "mo": 288,
      "id": 289,
      "ĠBake": 290,
      "igh": 291,
      "read": 292,
      "Ġadd": 293,
      "aking": 294,
      "ĠF": 295,
      "ay": 296,
      "Ġeggs": 297,
      "ur": 298,
      "ien": 299,
      "ĠW": 300,
      "mb": 301,
      "Ġchicken": 302,
      "atoes": 303,
      "ĠSp": 304,
      "res": 305,
      "Ġbaking": 306,
      "owl": 307,
      "ven": 308,
      "ie": 309,
      "up": 310,
      "ĠSt": 311,
      "Ġbowl": 312,
      "gred": 313,
      "gredien": 314,
      "Ġingredien": 315,
      "all": 316,
      "les": 317,
      "Ġingredients": 318,
      "Ġr": 319,
      "ab": 320,
      "Ġwh": 321,
      "Ġbrown": 322,
      "oil": 323,
      "od": 324,
      "ish": 325,
      "Ġgar": 326,
      "Ġgre": 327,
      "Ġ4": 328,
      "ĠMix": 329,
      "ip": 330,
      "mbine": 331,
      "st": 332,
      "Ġstir": 333,
      "50": 334,
      "lace": 335,
      "Ġgr": 336,
      "illa": 337,
      "anilla": 338,
      "Ġwell": 339,
      "Ġgarlic": 340,
      "Ġju": 341,
      "ĠCh": 342,
      "Ġvanilla": 343,
      "Ġse": 344,
      "der": 345,
      "qu": 346,
      "mon": 347,
      "Ġsh": 348,
      "col": 349,
      "ight": 350,
      "Ġjuice": 351,
      "Ġtom": 352,
      "Ġy": 353,
      "ĠIn": 354,
      "om": 355,
      "erve": 356,
      "Ġoven": 357,
      "ther": 358,
      "owder": 359,
      "ound": 360,
      "ring": 361,
      "ĠL": 362,
      "ust": 363,
      "Ġpot": 364,
      "ans": 365,
      "Ġ350": 366,
      "ach": 367,
      "ĠG": 368,
      "Ġ(": 369,
      "Ġpowder": 370,
      "Ġfro": 371,
      "ĠRe": 372,
      "Ġcho": 373,
      "ĠPour": 374,
      "ĠStir": 375,
      "Ġlar": 376,
      "ain": 377,
      "Ġhour": 378,
      "Ġlarge": 379,
      "ĠCook": 380,
      "ĠH": 381,
      "edi": 382,
      "Ġboil": 383,
      "Ġis": 384,
      "out": 385,
      "ink": 386,
      "oup": 387,
      "Ġmar": 388,
      "orn": 389,
      "Ġtop": 390,
      "ap": 391,
      "ber": 392,
      "ack": 393,
      "ough": 394,
      "Ġab": 395,
      "ger": 396,
      "uts": 397,
      "Ġte": 398,
      "ĠPlace": 399,
      "Ġlemon": 400,
      "gether": 401,
      "oon": 402,
      "ass": 403,
      "Ġtogether": 404,
      "li": 405,
      "Ġcup": 406,
      "rink": 407,
      "nder": 408,
      "erv": 409,
      "Ġall": 410,
      "edium": 411,
      "ĠCombine": 412,
      "Ġabout": 413,
      "Ġmedium": 414,
      "rain": 415,
      "ces": 416,
      "ff": 417,
      "colate": 418,
      "rinkle": 419,
      "Ġgreen": 420,
      "oth": 421,
      "ush": 422,
      "co": 423,
      "Ġground": 424,
      "Ġsoup": 425,
      "pple": 426,
      "Ġro": 427,
      "age": 428,
      "move": 429,
      "Ġpie": 430,
      "ide": 431,
      "Ġonions": 432,
      "Ġcorn": 433,
      "Ġfrom": 434,
      "ole": 435,
      "ef": 436,
      "let": 437,
      "inch": 438,
      "Ġrem": 439,
      "Ġremain": 440,
      "Ġas": 441,
      "elt": 442,
      "Ġoli": 443,
      "Ġ5": 444,
      "old": 445,
      "ars": 446,
      "imm": 447,
      "Ġ10": 448,
      "Ġdish": 449,
      "Ġbread": 450,
      "Ġremaining": 451,
      "if": 452,
      "mall": 453,
      "av": 454,
      "Ġpotatoes": 455,
      "Ġthen": 456,
      "arm": 457,
      "ore": 458,
      "eg": 459,
      "ĠServe": 460,
      "op": 461,
      "ĠO": 462,
      "inn": 463,
      "ite": 464,
      "se": 465,
      "ard": 466,
      "Ġshe": 467,
      "ood": 468,
      "Ġsk": 469,
      "lend": 470,
      "Ġtomatoes": 471,
      "Ġ30": 472,
      "bs": 473,
      "ers": 474,
      "Ġred": 475,
      "Ġso": 476,
      "ies": 477,
      "ten": 478,
      "Ġit": 479,
      "get": 480,
      "one": 481,
      "Ġchocolate": 482,
      "ress": 483,
      "amon": 484,
      "innamon": 485,
      "getab": 486,
      "ightly": 487,
      "ant": 488,
      "Ġcon": 489,
      "room": 490,
      "fri": 491,
      "ĠSal": 492,
      "ushroom": 493,
      "resh": 494,
      "Ġve": 495,
      "Ġeach": 496,
      "ason": 497,
      "erving": 498,
      "Ġhot": 499,
      "and": 500,
      "mp": 501,
      "garine": 502,
      "Ġan": 503,
      "inegar": 504,
      "Ġsl": 505,
      "Ġmargarine": 506,
      "friger": 507,
      "Ġbeef": 508,
      "ries": 509,
      "ĠRemove": 510,
      "ely": 511,
      "un": 512,
      "oda": 513,
      "Ġolive": 514,
      "ĠCover": 515,
      "Ġk": 516,
      "ased": 517,
      "immer": 518,
      "Ġrice": 519,
      "Ġcinnamon": 520,
      "Ġvinegar": 521,
      "Ġsoda": 522,
      "ange": 523,
      "Ġcover": 524,
      "illet": 525,
      "Ġhours": 526,
      "ery": 527,
      "ire": 528,
      "ĠPre": 529,
      "Ġmushroom": 530,
      "Ġserving": 531,
      "asser": 532,
      "Ġstirring": 533,
      "asserole": 534,
      "ĠSprinkle": 535,
      "elery": 536,
      "Ġvegetab": 537,
      "ent": 538,
      "ise": 539,
      "uff": 540,
      "Ġfresh": 541,
      "Ġnuts": 542,
      "urn": 543,
      "Ġmeat": 544,
      "Ġcelery": 545,
      "Ġcool": 546,
      "akes": 547,
      "Ġal": 548,
      "ime": 549,
      "ag": 550,
      "Ġsmall": 551,
      "Ġsour": 552,
      "Ġskillet": 553,
      "ub": 554,
      "Ġhal": 555,
      "os": 556,
      "Ġ9": 557,
      ").": 558,
      "Ġtender": 559,
      "Ġ15": 560,
      "Ġcrum": 561,
      "ee": 562,
      "apple": 563,
      "ct": 564,
      "ineapple": 565,
      "art": 566,
      "Ġare": 567,
      "poon": 568,
      "ce": 569,
      "Ġcake": 570,
      "Ġcar": 571,
      "Ġtomato": 572,
      "ĠHeat": 573,
      "ul": 574,
      "hen": 575,
      "Ġbeans": 576,
      "Ġ8": 577,
      "Ġx": 578,
      "ĠE": 579,
      "Ġpast": 580,
      "ips": 581,
      "we": 582,
      "ley": 583,
      "acon": 584,
      "Ġwhite": 585,
      "Ġmelt": 586,
      "are": 587,
      "Ġmay": 588,
      "ves": 589,
      "Ġ20": 590,
      "ally": 591,
      "pped": 592,
      "pan": 593,
      "Ġcombine": 594,
      "uit": 595,
      "Ġpap": 596,
      "me": 597,
      "Ġpineapple": 598,
      "lack": 599,
      "Ġlow": 600,
      "zz": 601,
      "Ġdry": 602,
      "Ġsaucepan": 603,
      "Ġex": 604,
      "ĠSa": 605,
      "ash": 606,
      "ĠPut": 607,
      "Ġlet": 608,
      "ĠPreheat": 609,
      "Ġgreased": 610,
      "Ġbeat": 611,
      "Ġblend": 612,
      "arsley": 613,
      "Ġhalf": 614,
      "Ġsheet": 615,
      "mooth": 616,
      "ute": 617,
      "ĠCool": 618,
      "Ġchips": 619,
      "ustard": 620,
      "ĠBeat": 621,
      "Ġ6": 622,
      "Ġsimmer": 623,
      "Ġset": 624,
      "ĠCut": 625,
      "Ġdeg": 626,
      "ĠCream": 627,
      "ĠPe": 628,
      "ĠBro": 629,
      "Ġbake": 630,
      "ave": 631,
      "Ġslic": 632,
      "na": 633,
      "Ġbacon": 634,
      "Ġparsley": 635,
      "Ġdegre": 636,
      "ĠWh": 637,
      "ĠSpread": 638,
      "Ġseason": 639,
      "Ġfir": 640,
      "Ġpl": 641,
      "Ġsmooth": 642,
      "ld": 643,
      "ck": 644,
      "weet": 645,
      "Ġapp": 646,
      "Ġli": 647,
      "ated": 648,
      "Ġchil": 649,
      "ins": 650,
      "ressing": 651,
      "Ġserve": 652,
      "af": 653,
      "berries": 654,
      "ue": 655,
      "Ġblack": 656,
      "Ġcrack": 657,
      "sh": 658,
      "Ġrefriger": 659,
      "ayer": 660,
      "Ġbef": 661,
      "Ġbefore": 662,
      "ĠChicken": 663,
      "Ġroll": 664,
      "Ġcarro": 665,
      "Ġdegrees": 666,
      "Ġcrumbs": 667,
      "Ġ40": 668,
      "Ġif": 669,
      "Ġpour": 670,
      "cc": 671,
      "ork": 672,
      "con": 673,
      "Ġout": 674,
      "onna": 675,
      "onnaise": 676,
      "conut": 677,
      "Ġmustard": 678,
      "lo": 679,
      "raw": 680,
      "pping": 681,
      "Ġbroth": 682,
      "Ġpre": 683,
      "Ġpec": 684,
      "Ġplace": 685,
      "ĠSalad": 686,
      "ĠDrain": 687,
      "berry": 688,
      "hedd": 689,
      "heddar": 690,
      "Ġup": 691,
      "Ġdrain": 692,
      "ze": 693,
      "Ġmelted": 694,
      "ĠV": 695,
      "ĠTop": 696,
      "Ġcut": 697,
      "ĠLet": 698,
      "Ġcan": 699,
      "iss": 700,
      "Ġboiling": 701,
      "anut": 702,
      "Ġmayonnaise": 703,
      "yr": 704,
      "ke": 705,
      "Ġorange": 706,
      "yrup": 707,
      "ccol": 708,
      "anan": 709,
      "Ġdes": 710,
      "ĠN": 711,
      "olden": 712,
      "ccoli": 713,
      "Ġmushrooms": 714,
      "cess": 715,
      "esan": 716,
      "oll": 717,
      "armesan": 718,
      "Ġlightly": 719,
      "ately": 720,
      "Ġyou": 721,
      "zen": 722,
      "Ġbot": 723,
      "atter": 724,
      "Ġgolden": 725,
      "ree": 726,
      "Ġpecans": 727,
      "ray": 728,
      "inger": 729,
      "Ġcooking": 730,
      "Ġdough": 731,
      "Ġsyrup": 732,
      "ini": 733,
      "Ġsqu": 734,
      "Ġcasserole": 735,
      "ks": 736,
      "Ġcoconut": 737,
      "Ġ13": 738,
      "ruit": 739,
      "Ġaside": 740,
      "Ġslices": 741,
      "ĠCr": 742,
      "Ġwarm": 743,
      "ne": 744,
      "Ġshor": 745,
      "tom": 746,
      "Ġdressing": 747,
      "reas": 748,
      "75": 749,
      "rap": 750,
      "ĠAnd": 751,
      "udd": 752,
      "Ġhe": 753,
      "ired": 754,
      "Ġham": 755,
      "aste": 756,
      "Ġtab": 757,
      "ĠSe": 758,
      "ions": 759,
      "Ġpieces": 760,
      "Ġice": 761,
      "Ġbottom": 762,
      "Ġdesired": 763,
      "ĠBring": 764,
      "asil": 765,
      "tening": 766,
      "est": 767,
      "Ġcrust": 768,
      "lespoon": 769,
      "ĠGr": 770,
      "Ġapples": 771,
      "ĠCheese": 772,
      "Ġone": 773,
      "udding": 774,
      "usage": 775,
      "Ġcarrots": 776,
      "ĠK": 777,
      "Ġshortening": 778,
      "ps": 779,
      "Ġseasoning": 780,
      "ĠBrown": 781,
      "Ġgl": 782,
      "Ġtablespoon": 783,
      "Ġsprinkle": 784,
      "ĠCake": 785,
      "Ġpeppers": 786,
      "nds": 787,
      "Ġcookie": 788,
      "Ġvegetables": 789,
      "Ġne": 790,
      "isk": 791,
      "till": 792,
      "25": 793,
      "Ġalmo": 794,
      "ĠJ": 795,
      "Ġcups": 796,
      "oney": 797,
      "Ġnot": 798,
      "ile": 799,
      "tt": 800,
      "ian": 801,
      "oodles": 802,
      "Ġsof": 803,
      "Ġside": 804,
      "Ġste": 805,
      "ĠBe": 806,
      "row": 807,
      "rough": 808,
      "Ġlayer": 809,
      "ĠMelt": 810,
      "Ġchili": 811,
      "Ġcold": 812,
      "Ġ12": 813,
      "Ġpaper": 814,
      "Ġpro": 815,
      "Ġz": 816,
      "rimp": 817,
      "Ġthrough": 818,
      "Ġsalad": 819,
      "Ġlo": 820,
      "Ġginger": 821,
      "ĠSh": 822,
      "ss": 823,
      "Ġmore": 824,
      "Ġvegetable": 825,
      "Ġcooked": 826,
      "Ġfirst": 827,
      "Ġdone": 828,
      "Ġtaste": 829,
      "Ġbroccoli": 830,
      "alls": 831,
      "Ġwine": 832,
      "Ġthick": 833,
      "Ġliqu": 834,
      "Ġ45": 835,
      "ĠRoll": 836,
      "Ġinch": 837,
      "Ġnoodles": 838,
      "Ġfrozen": 839,
      "Ġstraw": 840,
      "Ġchill": 841,
      "ade": 842,
      "Ġseed": 843,
      "Ġbanan": 844,
      "Ġpeanut": 845,
      "ipe": 846,
      "stant": 847,
      "Ġ375": 848,
      "Ġfill": 849,
      "Ġjust": 850,
      "ĠWith": 851,
      "Ġwhi": 852,
      "ĠMakes": 853,
      "arch": 854,
      "nuts": 855,
      "ĠY": 856,
      "Ġext": 857,
      "Ġpork": 858,
      "ĠButter": 859,
      "Ġyour": 860,
      "ka": 861,
      "icrow": 862,
      "ĠU": 863,
      "ĠPie": 864,
      "Ġtime": 865,
      "ges": 866,
      "Ġbasil": 867,
      "ĠPot": 868,
      "ĠParmesan": 869,
      "ĠCasserole": 870,
      "Ġby": 871,
      "eep": 872,
      "Ġpasta": 873,
      "Ġonto": 874,
      "Ġsausage": 875,
      "Ġshell": 876,
      "very": 877,
      "Ġen": 878,
      "oss": 879,
      "hed": 880,
      "Ġra": 881,
      "cipe": 882,
      "Ġglass": 883,
      "ĠCheddar": 884,
      "Ġclo": 885,
      "Ġtor": 886,
      "icrowave": 887,
      "Ġturn": 888,
      "ently": 889,
      "Ġlime": 890,
      "isc": 891,
      "Ġnut": 892,
      "Ġpudding": 893,
      "ano": 894,
      "Ġcont": 895,
      "ump": 896,
      "Ġsto": 897,
      "Ġsweet": 898,
      "Ġhoney": 899,
      "Ġsoy": 900,
      "Ġbatter": 901,
      "erry": 902,
      "range": 903,
      "ble": 904,
      "Ġeven": 905,
      "Ġpack": 906,
      "ted": 907,
      "inach": 908,
      "ats": 909,
      "issol": 910,
      "isp": 911,
      "irect": 912,
      "og": 913,
      "Ġtoss": 914,
      "Ġpowdered": 915,
      "ides": 916,
      "Ġ25": 917,
      "ĠChill": 918,
      "Ġblended": 919,
      "Ġspray": 920,
      "ĠCho": 921,
      "Ġcrackers": 922,
      "Ġlight": 923,
      "ĠBlend": 924,
      "Ġus": 925,
      "Ġliquid": 926,
      "Ġdirect": 927,
      "Ġput": 928,
      "Ġchopped": 929,
      "meg": 930,
      "avor": 931,
      "ĠRed": 932,
      "Ġstand": 933,
      "ew": 934,
      "lender": 935,
      "Ġminute": 936,
      "coa": 937,
      "abb": 938,
      "Ġbrowned": 939,
      "tle": 940,
      "ĠIt": 941,
      "Ġtortill": 942,
      "Ġ400": 943,
      "Ġoff": 944,
      "Ġfruit": 945,
      "Ġrais": 946,
      "Ġhigh": 947,
      "Ġblender": 948,
      "ame": 949,
      "low": 950,
      "Ġcoat": 951,
      "Ġnutmeg": 952,
      "abbage": 953,
      "aked": 954,
      "ĠRefriger": 955,
      "par": 956,
      "ĠSpoon": 957,
      "ĠTh": 958,
      "Ġlon": 959,
      "ĠGar": 960,
      "ionally": 961,
      "Ġbell": 962,
      "shire": 963,
      "milk": 964,
      "Ġsides": 965,
      "Ġocc": 966,
      "Ġspoon": 967,
      "cover": 968,
      "ich": 969,
      "tershire": 970,
      "ĠChocolate": 971,
      "nish": 972,
      "Ġoccas": 973,
      "Ġqu": 974,
      "Ġspread": 975,
      "orces": 976,
      "Ġteas": 977,
      "els": 978,
      "Ġoccasionally": 979,
      "orcestershire": 980,
      "Ġteaspoon": 981,
      "Ġbring": 982,
      "ator": 983,
      "Ġprocess": 984,
      "Ġraisins": 985,
      "Ġthem": 986,
      "ful": 987,
      "gano": 988,
      "Ġevenly": 989,
      "Ġcocoa": 990,
      "ĠRefrigerate": 991,
      "Ġshrimp": 992,
      "Ġmake": 993,
      "Ġwal": 994,
      "Ġfry": 995,
      "ucch": 996,
      "Ġwill": 997,
      "rans": 998,
      "Ġfood": 999,
      "Ġother": 1000,
      "Ġfoil": 1001,
      "ucchini": 1002,
      "Ġthicken": 1003,
      "ser": 1004,
      "fer": 1005,
      "Ġslice": 1006,
      "Ġar": 1007,
      "ĠWhen": 1008,
      "ites": 1009,
      "oughly": 1010,
      "Ġmixing": 1011,
      "rika": 1012,
      "starch": 1013,
      "night": 1014,
      "'s": 1015,
      "oni": 1016,
      "ĠWorcestershire": 1017,
      "erves": 1018,
      "Ġcornstarch": 1019,
      "regano": 1020,
      "ĠSeason": 1021,
      "mallow": 1022,
      "Ġremove": 1023,
      "avy": 1024,
      "rop": 1025,
      "Ġcovered": 1026,
      "Ġmo": 1027,
      "umber": 1028,
      "Ġgra": 1029,
      "Ġrefrigerator": 1030,
      "alian": 1031,
      "pt": 1032,
      "Ġsaute": 1033,
      "urger": 1034,
      "Ġapple": 1035,
      "ous": 1036,
      "Ġfilling": 1037,
      "Ġpaprika": 1038,
      "oroughly": 1039,
      "Ġslightly": 1040,
      "Ġovernight": 1041,
      "ĠTo": 1042,
      "ĠSauce": 1043,
      "ucumber": 1044,
      "erries": 1045,
      "Ġoregano": 1046,
      "ĠWhip": 1047,
      "key": 1048,
      "Ġyol": 1049,
      "bly": 1050,
      "Ġsoft": 1051,
      "ĠFold": 1052,
      "ĠSalt": 1053,
      "ĠOn": 1054,
      "Ġleav": 1055,
      "Ġheavy": 1056,
      "Ġthis": 1057,
      "ually": 1058,
      "Ġwhites": 1059,
      "gre": 1060,
      "ĠDip": 1061,
      "Ġbuttermilk": 1062,
      "Ġwalnuts": 1063,
      "Ġuse": 1064,
      "Ġbananas": 1065,
      "Ġthoroughly": 1066,
      "Ġtill": 1067,
      "Ġstrawberries": 1068,
      "fter": 1069,
      "ift": 1070,
      "Ġrefrigerate": 1071,
      "Ġcub": 1072,
      "Ġtopping": 1073,
      "ĠSaute": 1074,
      "own": 1075,
      "Ġshall": 1076,
      "Ġcabbage": 1077,
      "kin": 1078,
      "umin": 1079,
      "Ġwhipped": 1080,
      "reasts": 1081,
      "enter": 1082,
      "ding": 1083,
      "ĠItalian": 1084,
      "Ġcomp": 1085,
      "ĠCookies": 1086,
      "ĠRecipe": 1087,
      "arb": 1088,
      "urt": 1089,
      "Ġseeds": 1090,
      "ĠMe": 1091,
      "meal": 1092,
      "Ġconstant": 1093,
      "covered": 1094,
      "ined": 1095,
      "ittle": 1096,
      "Ġsc": 1097,
      "Ġspinach": 1098,
      "Ġdri": 1099,
      "Ġmarsh": 1100,
      "Ġ325": 1101,
      "Ġpackage": 1102,
      "Ġcenter": 1103,
      "Ġconstantly": 1104,
      "Ġmarshmallow": 1105,
      "oy": 1106,
      "Ġbut": 1107,
      "Ġwhisk": 1108,
      "Ġtw": 1109,
      "Ġpeas": 1110,
      "tuce": 1111,
      "ome": 1112,
      "Ġballs": 1113,
      "Ġcomplet": 1114,
      "Ġbag": 1115,
      "ĠBoil": 1116,
      "ello": 1117,
      "ĠBread": 1118,
      "ec": 1119,
      "Ġcle": 1120,
      "Ġtablespoons": 1121,
      "ransfer": 1122,
      "umpkin": 1123,
      "Ġdown": 1124,
      "urkey": 1125,
      "Ġfirm": 1126,
      "ogurt": 1127,
      "other": 1128,
      "antro": 1129,
      "lue": 1130,
      "Ġbreasts": 1131,
      "Ġacc": 1132,
      "ilantro": 1133,
      "Ġuncovered": 1134,
      "ediately": 1135,
      "Ġfree": 1136,
      "Ġleast": 1137,
      "Ġslow": 1138,
      "ric": 1139,
      "ess": 1140,
      "Ġpotato": 1141,
      "edges": 1142,
      "lla": 1143,
      "eal": 1144,
      "Ġolives": 1145,
      "Ġlettuce": 1146,
      "Ġcompletely": 1147,
      "ĠSimmer": 1148,
      "arella": 1149,
      "Ġgrated": 1150,
      "ĠRice": 1151,
      "ta": 1152,
      "act": 1153,
      "zzarella": 1154,
      "ĠSoup": 1155,
      "Ġfork": 1156,
      "Ġcucumber": 1157,
      "Ġlittle": 1158,
      "Ġservings": 1159,
      "adually": 1160,
      "Ġgrill": 1161,
      "ices": 1162,
      "cept": 1163,
      "ary": 1164,
      "Ġcracker": 1165,
      "iv": 1166,
      "ĠSl": 1167,
      "Ġ7": 1168,
      "ording": 1169,
      "Ġdissol": 1170,
      "ĠRo": 1171,
      "Ġcontain": 1172,
      "Ġrack": 1173,
      "Ġaccording": 1174,
      "ĠAr": 1175,
      "Ġnon": 1176,
      "oc": 1177,
      "burger": 1178,
      "Ġalmonds": 1179,
      "Ġzucchini": 1180,
      "hett": 1181,
      "Ġ-": 1182,
      "ham": 1183,
      "ĠFor": 1184,
      "ĠReduce": 1185,
      "Ġfish": 1186,
      "yme": 1187,
      "Ġimm": 1188,
      "Ġmuff": 1189,
      "Ġcrisp": 1190,
      "leo": 1191,
      "Ġplate": 1192,
      "zzle": 1193,
      "iscuit": 1194,
      "Ġoleo": 1195,
      "Ġleaves": 1196,
      "Ġcilantro": 1197,
      "ĠTurn": 1198,
      "eed": 1199,
      "quart": 1200,
      "acar": 1201,
      "ĠLe": 1202,
      "ition": 1203,
      "Ġrest": 1204,
      "Ġmicrowave": 1205,
      "ens": 1206,
      "Ġanother": 1207,
      "ĠServes": 1208,
      "sa": 1209,
      "Ġdo": 1210,
      "Ġwhole": 1211,
      "Ġthin": 1212,
      "aghett": 1213,
      "Ġimmediately": 1214,
      "ature": 1215,
      "Ġcran": 1216,
      "Ġform": 1217,
      "aghetti": 1218,
      "Ġvery": 1219,
      "Ġenough": 1220,
      "ĠDrop": 1221,
      "ĠSet": 1222,
      "Ġthyme": 1223,
      "Ġyolks": 1224,
      "izz": 1225,
      "Ġfat": 1226,
      "Ġflavor": 1227,
      "Ġtemp": 1228,
      "Ġstick": 1229,
      "Ġ35": 1230,
      "Ġwhen": 1231,
      "atin": 1232,
      "ize": 1233,
      "Ġyogurt": 1234,
      "Ġusing": 1235,
      "greased": 1236,
      "ĠSift": 1237,
      "Ġexcept": 1238,
      "unch": 1239,
      "Ġgraham": 1240,
      "acaroni": 1241,
      "Ġdirections": 1242,
      "ang": 1243,
      "Ġmarin": 1244,
      "rease": 1245,
      "Ġmixed": 1246,
      "Ġres": 1247,
      "ape": 1248,
      "Ġwa": 1249,
      "oured": 1250,
      "Ġmarshmallows": 1251,
      "Ġlonger": 1252,
      "Ġpaste": 1253,
      "Ġprep": 1254,
      "Ġroast": 1255,
      "Ġhand": 1256,
      "Ġgel": 1257,
      "aw": 1258,
      "ellow": 1259,
      "Ġloaf": 1260,
      "Ġmixer": 1261,
      "Ġcro": 1262,
      "Ġprocessor": 1263,
      "east": 1264,
      "high": 1265,
      "oun": 1266,
      "ady": 1267,
      "Ġoats": 1268,
      "ĠBr": 1269,
      "Ġtemper": 1270,
      "ĠToss": 1271,
      "iz": 1272,
      "Ġfloured": 1273,
      "Ġflakes": 1274,
      "Ġcubes": 1275,
      "Ġtemperature": 1276,
      "joy": 1277,
      "asy": 1278,
      "Ġsteak": 1279,
      "Ġbub": 1280,
      "Ġseco": 1281,
      "ĠIf": 1282,
      "Ġrolls": 1283,
      "Ġri": 1284,
      "Ġcontainer": 1285,
      "Ġgently": 1286,
      "Ġcol": 1287,
      "Ġcumin": 1288,
      "Ġpans": 1289,
      "Ġstock": 1290,
      "Ġyeast": 1291,
      "ĠThen": 1292,
      "Ġcond": 1293,
      "Ġcrus": 1294,
      "ĠSu": 1295,
      "Ġtwo": 1296,
      "Ġextr": 1297,
      "bl": 1298,
      "Ġaddition": 1299,
      "ares": 1300,
      "ffee": 1301,
      "Ġcheddar": 1302,
      "isten": 1303,
      "ensed": 1304,
      "dded": 1305,
      ".)": 1306,
      "ase": 1307,
      "ared": 1308,
      "Ġchops": 1309,
      "Ġyellow": 1310,
      "ĠArrange": 1311,
      "Ġhamburger": 1312,
      "izza": 1313,
      "ĠGarnish": 1314,
      "ĠEgg": 1315,
      "stick": 1316,
      "Ġafter": 1317,
      "ĠTransfer": 1318,
      "ĠLayer": 1319,
      "ist": 1320,
      "Ġjello": 1321,
      "ind": 1322,
      "Ġcondensed": 1323,
      "redded": 1324,
      "gin": 1325,
      "Ġboth": 1326,
      "Ġthat": 1327,
      "pe": 1328,
      "ia": 1329,
      "Ġcloves": 1330,
      "Ġextra": 1331,
      "Ġpeach": 1332,
      "ates": 1333,
      "enne": 1334,
      "eta": 1335,
      "Ġap": 1336,
      "voc": 1337,
      "vocad": 1338,
      "Ġlike": 1339,
      "Ġgelatin": 1340,
      "esame": 1341,
      "aco": 1342,
      "ĠFl": 1343,
      "Ġclean": 1344,
      "Ġbre": 1345,
      "ĠFill": 1346,
      "Ġextract": 1347,
      "ĠMo": 1348,
      "ved": 1349,
      "ĠCorn": 1350,
      "ĠGrease": 1351,
      "ĠSlice": 1352,
      "Ġcur": 1353,
      "Ġturkey": 1354,
      "Ġtortillas": 1355,
      "sp": 1356,
      "Ġmuffin": 1357,
      "Ġbr": 1358,
      "iel": 1359,
      "ings": 1360,
      "Ġshredded": 1361,
      "Ġcom": 1362,
      "ĠEn": 1363,
      "Ġbiscuit": 1364,
      "ĠPotato": 1365,
      "ĠLemon": 1366,
      "Ġcookies": 1367,
      "Ġcherries": 1368,
      "ĠPepper": 1369,
      "inue": 1370,
      "xt": 1371,
      "Ġwax": 1372,
      "ull": 1373,
      "Ġready": 1374,
      "Ġbit": 1375,
      "Ġhas": 1376,
      "Ġheated": 1377,
      "Ġprepared": 1378,
      "rab": 1379,
      "Ġmacaroni": 1380,
      "ĠTom": 1381,
      "Ġpumpkin": 1382,
      "ĠCar": 1383,
      "Ġfew": 1384,
      "ĠApple": 1385,
      "Ġwhile": 1386,
      "Ġthickened": 1387,
      "Ġpreheat": 1388,
      "tern": 1389,
      "ĠGrill": 1390,
      "ĠMake": 1391,
      "Ġcomes": 1392,
      "Ġblue": 1393,
      "ould": 1394,
      "una": 1395,
      "Ġdill": 1396,
      "ĠThe": 1397,
      "Ġbuttered": 1398,
      "Ġcherry": 1399,
      "arin": 1400,
      "Ġspeed": 1401,
      "Ġungreased": 1402,
      "Ġlay": 1403,
      "astic": 1404,
      "Ġspaghetti": 1405,
      "lower": 1406,
      "dge": 1407,
      "Ġmint": 1408,
      "ĠEasy": 1409,
      "Ġsome": 1410,
      "Ġroom": 1411,
      "ĠSugar": 1412,
      "mer": 1413,
      "her": 1414,
      "ĠPress": 1415,
      "Ġket": 1416,
      "ĠChop": 1417,
      "Ġsalsa": 1418,
      "Ġpat": 1419,
      "fe": 1420,
      "Ġsize": 1421,
      "Ġneed": 1422,
      "pare": 1423,
      "Ġhave": 1424,
      "flower": 1425,
      "ting": 1426,
      "Ġclove": 1427,
      "Ġpeel": 1428,
      "Ġpastry": 1429,
      "ĠGre": 1430,
      "ayenne": 1431,
      "rox": 1432,
      "Ġcomb": 1433,
      "iff": 1434,
      "Ġshallow": 1435,
      "erved": 1436,
      "ount": 1437,
      "wich": 1438,
      "asp": 1439,
      "parate": 1440,
      "ots": 1441,
      "Ġround": 1442,
      "ield": 1443,
      "atmeal": 1444,
      "uffy": 1445,
      "Ġmins": 1446,
      "ort": 1447,
      "Ġleaf": 1448,
      "ĠVe": 1449,
      "Ġplastic": 1450,
      "Ġbay": 1451,
      "wh": 1452,
      "ĠQ": 1453,
      "Ġkeep": 1454,
      "Ġsesame": 1455,
      "Ġtow": 1456,
      "Ġdou": 1457,
      "Ġsquash": 1458,
      "Ġsquares": 1459,
      "Ġonce": 1460,
      "Ġsliced": 1461,
      "Ġturning": 1462,
      "Ġthey": 1463,
      "Ġtortilla": 1464,
      "Ġcrushed": 1465,
      "Ġany": 1466,
      "uree": 1467,
      "ider": 1468,
      "Ġcayenne": 1469,
      "Ġam": 1470,
      "Ġ50": 1471,
      "Ġstuff": 1472,
      "Ġtoast": 1473,
      "ĠQu": 1474,
      "arbec": 1475,
      "Ġstri": 1476,
      "Ġpress": 1477,
      "arts": 1478,
      "ig": 1479,
      "ried": 1480,
      "ive": 1481,
      "Ġseconds": 1482,
      "als": 1483,
      "Ġcarrot": 1484,
      "Ġavocad": 1485,
      "Ġzest": 1486,
      "Ġday": 1487,
      "ĠSto": 1488,
      "Ġreduce": 1489,
      "Ġevery": 1490,
      "Ġcl": 1491,
      "ĠUse": 1492,
      "ĠWhisk": 1493,
      "Ġparmesan": 1494,
      "ĠBeef": 1495,
      "fect": 1496,
      "ters": 1497,
      "ĠThis": 1498,
      "roxim": 1499,
      "ĠRoast": 1500,
      "Ġsoften": 1501,
      "Ġcolor": 1502,
      "ace": 1503,
      "chup": 1504,
      "ĠSweet": 1505,
      "Ġfluffy": 1506,
      "Ġspices": 1507,
      "ossi": 1508,
      "Ġsalmon": 1509,
      "Ġwire": 1510,
      "Ġscall": 1511,
      "Ġpick": 1512,
      "ĠBaked": 1513,
      "Ġcombined": 1514,
      "ĠPrepare": 1515,
      "Ġfold": 1516,
      "ĠPeanut": 1517,
      "Ġlayers": 1518,
      "roximately": 1519,
      "fat": 1520,
      "au": 1521,
      "while": 1522,
      "Ġdissolved": 1523,
      "Ġkn": 1524,
      "amel": 1525,
      "ĠPotatoes": 1526,
      "Ġpreheated": 1527,
      "Ġpeaches": 1528,
      "cent": 1529,
      "ets": 1530,
      "Ġaround": 1531,
      "ĠFry": 1532,
      "Ġper": 1533,
      "Ġslowly": 1534,
      "lect": 1535,
      "ĠYield": 1536,
      "Ġbroil": 1537,
      "cr": 1538,
      "ivide": 1539,
      "Ġag": 1540,
      "Ġtaco": 1541,
      "anwhile": 1542,
      "Ġlen": 1543,
      "ĠDri": 1544,
      "te": 1545,
      "anuts": 1546,
      "Ġpossi": 1547,
      "Ġcoated": 1548,
      "Ġedges": 1549,
      "ĠGradually": 1550,
      "'t": 1551,
      "int": 1552,
      "peat": 1553,
      "Ġketchup": 1554,
      "Ġtooth": 1555,
      "Ġadditional": 1556,
      "ĠMicrowave": 1557,
      "pick": 1558,
      "irgin": 1559,
      "ĠMeanwhile": 1560,
      "ĠBanan": 1561,
      "ĠSqu": 1562,
      "ose": 1563,
      "Ġcider": 1564,
      "Ġball": 1565,
      "Ġseasonings": 1566,
      "Ġalmond": 1567,
      "anges": 1568,
      "ĠDrizzle": 1569,
      "arbecue": 1570,
      "Ġgrap": 1571,
      "zer": 1572,
      "Ġwrap": 1573,
      "Ġmarinade": 1574,
      "ican": 1575,
      "ĠMozzarella": 1576,
      "Ġtoothpick": 1577,
      "Ġgarnish": 1578,
      "Ġchilled": 1579,
      "Ġstrips": 1580,
      "ĠAl": 1581,
      "tail": 1582,
      "mary": 1583,
      "Ġbo": 1584,
      "Ġbet": 1585,
      "urp": 1586,
      "veral": 1587,
      "Ġcranberries": 1588,
      "Ġstiff": 1589,
      "iscard": 1590,
      "ĠDo": 1591,
      "Ġcoffee": 1592,
      "ark": 1593,
      "semary": 1594,
      "cktail": 1595,
      "ife": 1596,
      "fection": 1597,
      "apen": 1598,
      "Ġdouble": 1599,
      "Ġpeanuts": 1600,
      "Ġcurry": 1601,
      "Ġpo": 1602,
      "Ġinstant": 1603,
      "Ġseveral": 1604,
      "ĠPeel": 1605,
      "ives": 1606,
      "Ġcons": 1607,
      "Ġapproximately": 1608,
      "ola": 1609,
      "ĠBre": 1610,
      "Ġbeaten": 1611,
      "inse": 1612,
      "ĠDressing": 1613,
      "Ġstuffing": 1614,
      "ĠFro": 1615,
      "ĠStore": 1616,
      "Ġknife": 1617,
      "ĠGarlic": 1618,
      "Ġ425": 1619,
      "sweet": 1620,
      "Ġgrease": 1621,
      "Ġbubbly": 1622,
      "ĠBroccoli": 1623,
      "Ġcand": 1624,
      "ĠSw": 1625,
      "alapen": 1626,
      "ereal": 1627,
      "auli": 1628,
      "Ġseparate": 1629,
      "auliflower": 1630,
      "ĠYou": 1631,
      "Ġnext": 1632,
      "Ġbanana": 1633,
      "Ġoranges": 1634,
      "ong": 1635,
      "lectric": 1636,
      "sert": 1637,
      "Ġconfection": 1638,
      "Ġagain": 1639,
      "ĠFruit": 1640,
      "asses": 1641,
      "Ġnonstick": 1642,
      "ĠVegetab": 1643,
      "ĠBanana": 1644,
      "Ġwhipping": 1645,
      "rand": 1646,
      "Ġno": 1647,
      "Ġchun": 1648,
      "Ġhalves": 1649,
      "Ġelectric": 1650,
      "ai": 1651,
      "Ġlid": 1652,
      "ont": 1653,
      "ĠShape": 1654,
      "ĠStraw": 1655,
      "yle": 1656,
      "olasses": 1657,
      "Ġfrying": 1658,
      "Ġde": 1659,
      "Ġcrab": 1660,
      "Ġbeating": 1661,
      "Ġsquare": 1662,
      "Ġflat": 1663,
      "ashed": 1664,
      "Ġcott": 1665,
      "Ġstrawberry": 1666,
      "Ġback": 1667,
      "Ġrasp": 1668,
      "Ġcrock": 1669,
      "cake": 1670,
      "Ġpim": 1671,
      "elly": 1672,
      "Ġamount": 1673,
      "Ġmel": 1674,
      "Ġlast": 1675,
      "parag": 1676,
      "of": 1677,
      "Ġbou": 1678,
      "paragus": 1679,
      "adish": 1680,
      "ĠTe": 1681,
      "Ġcottage": 1682,
      "Ġchilies": 1683,
      "Ġadding": 1684,
      "cy": 1685,
      "ĠPast": 1686,
      "areful": 1687,
      "Ġallow": 1688,
      "Ġcereal": 1689,
      "ized": 1690,
      "Ġfreezer": 1691,
      "Ġchop": 1692,
      "ĠChe": 1693,
      "ney": 1694,
      "illon": 1695,
      "Ġconfectioners": 1696,
      "Ġskin": 1697,
      "issolve": 1698,
      "ĠZ": 1699,
      "ĠDissolve": 1700,
      "ĠGreen": 1701,
      "ĠFresh": 1702,
      "ĠHam": 1703,
      "Ġseal": 1704,
      "Ġfre": 1705,
      "uck": 1706,
      "Ġaltern": 1707,
      "Ġtuna": 1708,
      "iced": 1709,
      "ĠLine": 1710,
      "Ġinches": 1711,
      "Ġlong": 1712,
      "Ġfin": 1713,
      "Ġwheat": 1714,
      "Ġbouillon": 1715,
      "ĠBrush": 1716,
      "erb": 1717,
      "ĠPork": 1718,
      "Ġpuree": 1719,
      "Ġsheets": 1720,
      "ĠFree": 1721,
      "Ġsur": 1722,
      "vy": 1723,
      "Ġchives": 1724,
      "Ġfull": 1725,
      "Ġcreamy": 1726,
      "ĠDivide": 1727,
      "Ġmozzarella": 1728,
      "pl": 1729,
      "ĠAll": 1730,
      "Ġjar": 1731,
      "Ġshould": 1732,
      "ĠRet": 1733,
      "osher": 1734,
      "ino": 1735,
      "fuls": 1736,
      "Ġbiscuits": 1737,
      "ĠRepeat": 1738,
      "ĠReturn": 1739,
      "Ġtoo": 1740,
      "),": 1741,
      "ĠEnjoy": 1742,
      "ĠTomato": 1743,
      "Ġblueberries": 1744,
      "10": 1745,
      "Ġcucumbers": 1746,
      "aple": 1747,
      "bsp": 1748,
      "Ġrosemary": 1749,
      "nut": 1750,
      "nel": 1751,
      "ĠOnion": 1752,
      "ĠBreak": 1753,
      "Ġinser": 1754,
      "Ġme": 1755,
      "Ġwedges": 1756,
      "bread": 1757,
      "so": 1758,
      "sting": 1759,
      "ĠBeans": 1760,
      "wise": 1761,
      "Ġdeep": 1762,
      "Ġdirected": 1763,
      "Ġ300": 1764,
      "Ġmolasses": 1765,
      "Ġdip": 1766,
      "Ġshells": 1767,
      "elve": 1768,
      "Ġsurf": 1769,
      "Ġgradually": 1770,
      "Ġfreeze": 1771,
      "Ġinserted": 1772,
      "imes": 1773,
      "isco": 1774,
      "Ġpossibly": 1775,
      "ug": 1776,
      "Ġpizza": 1777,
      "Ġjalapen": 1778,
      "ĠSte": 1779,
      "Ġfreshly": 1780,
      "ren": 1781,
      "ĠHot": 1782,
      "Ġcontinue": 1783,
      "Ġconsisten": 1784,
      "Ġneeded": 1785,
      "ĠUn": 1786,
      "Ġavocado": 1787,
      "ĠWash": 1788,
      "Ġpit": 1789,
      "Ġfrequ": 1790,
      "ĠSc": 1791,
      "Ġfrequently": 1792,
      "Ġrecipe": 1793,
      "Ġend": 1794,
      "ĠChil": 1795,
      "Ġconsistency": 1796,
      "sc": 1797,
      "Ġsurface": 1798,
      "corn": 1799,
      "oke": 1800,
      "ĠStrawberry": 1801,
      "Ġcocktail": 1802,
      "Ġpink": 1803,
      "Ġrind": 1804,
      "Ġdi": 1805,
      "ĠWrap": 1806,
      "ĠTake": 1807,
      "Ġtart": 1808,
      "ĠMeat": 1809,
      "udge": 1810,
      "ula": 1811,
      "ĠPasta": 1812,
      "atch": 1813,
      "ĠCan": 1814,
      "ĠPudding": 1815,
      "ĠOrange": 1816,
      "Ġberries": 1817,
      "Ġmash": 1818,
      "kra": 1819,
      "Ġcooled": 1820,
      "irt": 1821,
      "ĠMarin": 1822,
      "Ġcooker": 1823,
      "Ġapart": 1824,
      "auce": 1825,
      "ĠStuff": 1826,
      "Ġpatt": 1827,
      "Ġ\"": 1828,
      "ddle": 1829,
      "Ġgood": 1830,
      "amic": 1831,
      "imp": 1832,
      "Ġreserved": 1833,
      "Ġcornmeal": 1834,
      "Ġjelly": 1835,
      "ened": 1836,
      "Ġ450": 1837,
      "ĠMay": 1838,
      "ĠShrimp": 1839,
      "Ġcauliflower": 1840,
      "ĠVelve": 1841,
      "ĠCrisco": 1842,
      "urpose": 1843,
      "utch": 1844,
      "ĠVegetable": 1845,
      "Ġdates": 1846,
      "Ġoatmeal": 1847,
      "Ġsoftened": 1848,
      "sal": 1849,
      "avorite": 1850,
      "ween": 1851,
      "ĠSpray": 1852,
      "Ġsalted": 1853,
      "Ġsem": 1854,
      "pot": 1855,
      "ran": 1856,
      "ĠSwiss": 1857,
      "Ġsand": 1858,
      "Ġ24": 1859,
      "Ġbetween": 1860,
      "gth": 1861,
      "lets": 1862,
      "coop": 1863,
      "Ġgran": 1864,
      "sing": 1865,
      "Ġshake": 1866,
      "Ġused": 1867,
      "ĠChili": 1868,
      "Ġbreast": 1869,
      "purpose": 1870,
      "az": 1871,
      "alsamic": 1872,
      "Ġenjoy": 1873,
      "ment": 1874,
      "ĠDel": 1875,
      "amb": 1876,
      "Ġdon": 1877,
      "way": 1878,
      "ube": 1879,
      "20": 1880,
      "cakes": 1881,
      "Ġrise": 1882,
      "Ġplatter": 1883,
      "ĠNut": 1884,
      "ango": 1885,
      "Ġpiece": 1886,
      "Ġcranberry": 1887,
      "Ġsure": 1888,
      "Ġkid": 1889,
      "Ġpart": 1890,
      "plant": 1891,
      "fl": 1892,
      "nead": 1893,
      "ĠBean": 1894,
      "Ġlength": 1895,
      "Ġjuices": 1896,
      "Ġsandwich": 1897,
      "Ġdrizzle": 1898,
      "ĠUsing": 1899,
      "balls": 1900,
      "ento": 1901,
      "Ġmeal": 1902,
      "ĠSpinach": 1903,
      "Ġtightly": 1904,
      "spice": 1905,
      "Ġstal": 1906,
      "Ġbun": 1907,
      "ĠPro": 1908,
      "Ġche": 1909,
      "sels": 1910,
      "Ġmelts": 1911,
      "Ġ18": 1912,
      "Ġrum": 1913,
      "Ġbroiler": 1914,
      "Ġbeen": 1915,
      "ĠSausage": 1916,
      "rag": 1917,
      "ĠVelveeta": 1918,
      "Ġscallions": 1919,
      "ĠBlack": 1920,
      "Ġwaf": 1921,
      "Ġdiscard": 1922,
      "about": 1923,
      "atsup": 1924,
      "reme": 1925,
      "Ġhard": 1926,
      "Ġbean": 1927,
      "arefully": 1928,
      "Ġjars": 1929,
      "Ġfil": 1930,
      "Ġasparagus": 1931,
      "ĠLo": 1932,
      "ĠWhite": 1933,
      "ys": 1934,
      "Ġapric": 1935,
      "crum": 1936,
      "ma": 1937,
      "Ġbarbecue": 1938,
      "ĠPizza": 1939,
      "Ġalso": 1940,
      "Ġkidney": 1941,
      "side": 1942,
      "Ġcatsup": 1943,
      "Ġsherry": 1944,
      "ĠSlow": 1945,
      "Ġspice": 1946,
      "orated": 1947,
      "Ġsemi": 1948,
      "Ġsm": 1949,
      "icot": 1950,
      "orb": 1951,
      "Ġflavoring": 1952,
      "amp": 1953,
      "ĠQuick": 1954,
      "ppy": 1955,
      "ĠDutch": 1956,
      "thing": 1957,
      "ĠYields": 1958,
      "cook": 1959,
      "Ġmold": 1960,
      "Ġglasses": 1961,
      "Ġchunks": 1962,
      "able": 1963,
      "ĠAs": 1964,
      "stit": 1965,
      "ms": 1966,
      "ation": 1967,
      "aker": 1968,
      "ĠWhile": 1969,
      "Ġbrush": 1970,
      "Ġpatties": 1971,
      "Ġsit": 1972,
      "Ġtowels": 1973,
      "ĠCoconut": 1974,
      "Ġoften": 1975,
      "Ġpimento": 1976,
      "Ġtimes": 1977,
      "ons": 1978,
      "Ġmashed": 1979,
      "ĠOli": 1980,
      "ĠAllow": 1981,
      "Ġdrained": 1982,
      "Ġmaple": 1983,
      "ĠAfter": 1984,
      "Ġgreens": 1985,
      "ĠMushroom": 1986,
      "Ġcreamed": 1987,
      "Ġboiler": 1988,
      "Ġallspice": 1989,
      "ĠMuff": 1990,
      "Ġbeg": 1991,
      "Ġalmost": 1992,
      "Ġbite": 1993,
      "ĠOil": 1994,
      "Ġcoars": 1995,
      "ĠPec": 1996,
      "ĠPineapple": 1997,
      "uch": 1998,
      "Ġstill": 1999,
      "ĠCran": 2000,
      "ĠJell": 2001,
      "rench": 2002,
      "ness": 2003,
      "ĠCont": 2004,
      "ĠLightly": 2005,
      "ĠMex": 2006,
      "Ġquart": 2007,
      "ĠMilk": 2008,
      "Ġunder": 2009,
      "ĠBacon": 2010,
      "Ġcaramel": 2011,
      "aze": 2012,
      "Ġpul": 2013,
      "Ġdozen": 2014,
      "Ġvirgin": 2015,
      "ams": 2016,
      "Ġbreadcrum": 2017,
      "ier": 2018,
      "Ġalternately": 2019,
      "ĠStrain": 2020,
      "ously": 2021,
      "ĠFreeze": 2022,
      "Ġexcess": 2023,
      "Ġshape": 2024,
      "bled": 2025,
      "ĠFrench": 2026,
      "aby": 2027,
      "rescent": 2028,
      "ling": 2029,
      "Ġker": 2030,
      "its": 2031,
      "ĠHigh": 2032,
      "ĠCarro": 2033,
      "Ġhor": 2034,
      "cessary": 2035,
      "Ġkosher": 2036,
      "Ġtube": 2037,
      "Ġsteam": 2038,
      "Ġmoisten": 2039,
      "Ġwaxed": 2040,
      "Ġnecessary": 2041,
      "ced": 2042,
      "uring": 2043,
      "Ġhead": 2044,
      "ĠSour": 2045,
      "otch": 2046,
      "edge": 2047,
      "ĠPumpkin": 2048,
      "Ġcap": 2049,
      "Ġdried": 2050,
      "salted": 2051,
      "Ġstalks": 2052,
      "fry": 2053,
      "Ġapplesauce": 2054,
      "Ġfour": 2055,
      "ĠCoat": 2056,
      "ĠBars": 2057,
      "Ġsub": 2058,
      "ĠBlue": 2059,
      "Ġrun": 2060,
      "ular": 2061,
      "und": 2062,
      "hub": 2063,
      "ĠPan": 2064,
      "isqu": 2065,
      "Ġgo": 2066,
      "icotta": 2067,
      "icy": 2068,
      "hubarb": 2069,
      "Ġcoloring": 2070,
      "ower": 2071,
      "Ġdripping": 2072,
      "Ġbits": 2073,
      "irtight": 2074,
      "Ġairtight": 2075,
      "ĠFudge": 2076,
      "Ġquick": 2077,
      "Ġwood": 2078,
      "Ġ60": 2079,
      "Ġjalapeno": 2080,
      "ey": 2081,
      "oria": 2082,
      "Ġremo": 2083,
      "ĠMuffins": 2084,
      "Ġbaked": 2085,
      "ĠVanilla": 2086,
      "Ġther": 2087,
      "Ġlean": 2088,
      "Ġget": 2089,
      "meat": 2090,
      "tich": 2091,
      "ĠCrum": 2092,
      "seradish": 2093,
      "Ġeverything": 2094,
      "13": 2095,
      "Ġunsalted": 2096,
      "Ġbreadcrumbs": 2097,
      "Ġchest": 2098,
      "ĠZucchini": 2099,
      "Ġ16": 2100,
      "ĠChip": 2101,
      "Ġlengthwise": 2102,
      "pen": 2103,
      "15": 2104,
      "Ġfine": 2105,
      "Ġev": 2106,
      "ale": 2107,
      "ĠHoney": 2108,
      "Ġdrippings": 2109,
      "Ġcandy": 2110,
      "Ġbalsamic": 2111,
      "ious": 2112,
      "oriander": 2113,
      "ener": 2114,
      "ĠSand": 2115,
      "Ġtea": 2116,
      "Ġwee": 2117,
      "Ġher": 2118,
      "ving": 2119,
      "Ġret": 2120,
      "Ġtartar": 2121,
      "ĠBroil": 2122,
      "Ġgravy": 2123,
      "Ġdays": 2124,
      "ĠIce": 2125,
      "ĠKeep": 2126,
      "Ġpop": 2127,
      "ollow": 2128,
      "ĠContinue": 2129,
      "ĠBisqu": 2130,
      "Ġevap": 2131,
      "ĠCranberry": 2132,
      "Ġind": 2133,
      "Ġdiced": 2134,
      "ĠMexican": 2135,
      "ĠEggs": 2136,
      "ĠTab": 2137,
      "odka": 2138,
      "Ġthickens": 2139,
      "Ġfavorite": 2140,
      "Ġtoasted": 2141,
      "Ġsugars": 2142,
      "ah": 2143,
      "ĠShake": 2144,
      "Ġinc": 2145,
      "Ġabs": 2146,
      "Ġpin": 2147,
      "Ġbowls": 2148,
      "ĠForm": 2149,
      "ĠOlive": 2150,
      "Ġcrescent": 2151,
      "ilad": 2152,
      "Ġchestnuts": 2153,
      "Ġbreak": 2154,
      "ĠOnce": 2155,
      "ĠAn": 2156,
      "Ġsubstit": 2157,
      "Ġmod": 2158,
      "ĠCreamy": 2159,
      "ored": 2160,
      "Ġhands": 2161,
      "Ġtri": 2162,
      "ĠWater": 2163,
      "ĠGrilled": 2164,
      "Ġwooden": 2165,
      "ingle": 2166,
      "ĠOr": 2167,
      "Ġtin": 2168,
      "Ġeggplant": 2169,
      "Ġonly": 2170,
      "ĠApp": 2171,
      "Ġbars": 2172,
      "tz": 2173,
      "Ġfri": 2174,
      "Ġsticks": 2175,
      "Ġcoriander": 2176,
      "ĠPat": 2177,
      "Ġlef": 2178,
      "scotch": 2179,
      "ĠTurkey": 2180,
      "Ġreturn": 2181,
      "ĠBisquick": 2182,
      "rit": 2183,
      "Ġfeta": 2184,
      "lish": 2185,
      "Ġraspberries": 2186,
      "Ġwafers": 2187,
      "Ġmoder": 2188,
      "..": 2189,
      "led": 2190,
      "Ġsage": 2191,
      "archment": 2192,
      "Ġbuns": 2193,
      "Ġbaby": 2194,
      "asco": 2195,
      "ĠSandwich": 2196,
      "anch": 2197,
      "Ġbox": 2198,
      "arp": 2199,
      "Ġyolk": 2200,
      "esto": 2201,
      "Ġshallots": 2202,
      "routs": 2203,
      "Ġwant": 2204,
      "ĠSteak": 2205,
      "ett": 2206,
      "ĠGently": 2207,
      "Ġabsorb": 2208,
      "Ġstart": 2209,
      "Ġparchment": 2210,
      "ĠCro": 2211,
      "Ġspring": 2212,
      "Ġsingle": 2213,
      "ĠPunch": 2214,
      "Ġribs": 2215,
      "Ġdark": 2216,
      "Ġvegg": 2217,
      "Ġcanola": 2218,
      "ote": 2219,
      "Ġthree": 2220,
      "Ġinst": 2221,
      "Ġhorseradish": 2222,
      "Ġfrosting": 2223,
      "eeze": 2224,
      "Ġcutting": 2225,
      "mm": 2226,
      "Ġbec": 2227,
      "Ġlined": 2228,
      "ĠRinse": 2229,
      "Ġtowel": 2230,
      "Ġ11": 2231,
      "ĠToast": 2232,
      "Ġorder": 2233,
      "Ġcrumb": 2234,
      "Ġclear": 2235,
      "Ġstrain": 2236,
      "30": 2237,
      "ied": 2238,
      "Ġtray": 2239,
      "Ġsw": 2240,
      "Ġtake": 2241,
      "oles": 2242,
      "Ġmango": 2243,
      "Ġstore": 2244,
      "Ġalong": 2245,
      "ĠMash": 2246,
      "Ġstove": 2247,
      "imple": 2248,
      "Ġsame": 2249,
      "Ġcann": 2250,
      "Ġvodka": 2251,
      "avored": 2252,
      "Ġmayo": 2253,
      "icious": 2254,
      "Ġteaspoons": 2255,
      "ĠCherry": 2256,
      "loin": 2257,
      "ĠRolls": 2258,
      "Ġherbs": 2259,
      "Ġmade": 2260,
      "Ġreg": 2261,
      "Ġtops": 2262,
      "Ġfridge": 2263,
      "Ġgrapes": 2264,
      "Ġpres": 2265,
      "Ġcas": 2266,
      "Ġpound": 2267,
      "gel": 2268,
      "Ġskew": 2269,
      "Ġquar": 2270,
      "ĠTabasco": 2271,
      "Ġport": 2272,
      "ĠCinnamon": 2273,
      "Ġale": 2274,
      "Ġwork": 2275,
      "Ġarrange": 2276,
      "Ġbon": 2277,
      "ĠOatmeal": 2278,
      "Ġsprayed": 2279,
      "Ġburn": 2280,
      "less": 2281,
      "Ġtransfer": 2282,
      "ĠTbsp": 2283,
      "tte": 2284,
      "Ġmeas": 2285,
      "ĠNo": 2286,
      "meric": 2287,
      "ĠSo": 2288,
      "ĠPeach": 2289,
      "ivid": 2290,
      "just": 2291,
      "rate": 2292,
      "Ġ.": 2293,
      "ĠPecan": 2294,
      "Ġgrain": 2295,
      "ĠTomatoes": 2296,
      "ĠSlowly": 2297,
      "Ġplates": 2298,
      "Ġmoistened": 2299,
      "ating": 2300,
      "Ġrinse": 2301,
      "Ġwhip": 2302,
      "uer": 2303,
      "ĠGl": 2304,
      "Ġevaporated": 2305,
      "Ġfo": 2306,
      "ĠFlour": 2307,
      "Ġfillets": 2308,
      "asag": 2309,
      "ĠStew": 2310,
      "head": 2311,
      "Ġscoop": 2312,
      "fast": 2313,
      "Ġmarinate": 2314,
      "kraut": 2315,
      "erm": 2316,
      "ĠDes": 2317,
      "ĠDi": 2318,
      "uminum": 2319,
      "Ġad": 2320,
      "Ġveggies": 2321,
      "eri": 2322,
      "Ġtrans": 2323,
      "ĠFried": 2324,
      "ĠRoasted": 2325,
      "uerkraut": 2326,
      "andarin": 2327,
      "grette": 2328,
      "ĠCrumble": 2329,
      "Ġbeer": 2330,
      "inai": 2331,
      "ragon": 2332,
      "Ġtsp": 2333,
      "Ġreserving": 2334,
      "ĠSalmon": 2335,
      "inaigrette": 2336,
      "qt": 2337,
      "rape": 2338,
      "Ġwil": 2339,
      "ĠCabbage": 2340,
      "ĠPound": 2341,
      "Ġdrop": 2342,
      "ĠSquash": 2343,
      "Ġbegins": 2344,
      "asch": 2345,
      "Ġmeatballs": 2346,
      "undt": 2347,
      "arragon": 2348,
      "ual": 2349,
      "oul": 2350,
      "Ġcoarse": 2351,
      "aschino": 2352,
      "ĠDessert": 2353,
      "Ġbl": 2354,
      "ĠGinger": 2355,
      "Ġfinely": 2356,
      "Ġunb": 2357,
      "icing": 2358,
      "Ġchuck": 2359,
      "Ġtur": 2360,
      "ĠJust": 2361,
      "Ġthickness": 2362,
      "ional": 2363,
      "Ġchees": 2364,
      "ĠNe": 2365,
      "ĠStuffed": 2366,
      "ĠBalls": 2367,
      "pro": 2368,
      "Ġsprouts": 2369,
      "ĠSk": 2370,
      "Ġstew": 2371,
      "gs": 2372,
      "chilad": 2373,
      "iddle": 2374,
      "Ġsubstitute": 2375,
      "eur": 2376,
      "inner": 2377,
      "Ġserved": 2378,
      "ĠSpicy": 2379,
      "Ġdissolve": 2380,
      "ĠTri": 2381,
      "Ġaluminum": 2382,
      "risp": 2383,
      "ĠPick": 2384,
      "tover": 2385,
      "ops": 2386,
      "Ġicing": 2387,
      "ird": 2388,
      "Ġconcent": 2389,
      "Ġpecan": 2390,
      "ĠCl": 2391,
      "ĠCaramel": 2392,
      "Ġleaving": 2393,
      "Ġboard": 2394,
      "Ġpeak": 2395,
      "Ġdegree": 2396,
      "Ġchiles": 2397,
      "Ġremoving": 2398,
      "Ġglaze": 2399,
      "Ġwet": 2400,
      "Ġpepperoni": 2401,
      "Ġedge": 2402,
      "Ġrub": 2403,
      "ĠLay": 2404,
      "Ġrolled": 2405,
      "Ġroasting": 2406,
      "Ġmaraschino": 2407,
      "Ġshaker": 2408,
      "Ġcrumbly": 2409,
      "ĠRub": 2410,
      "iche": 2411,
      "uct": 2412,
      "zo": 2413,
      "ĠCrisp": 2414,
      "Ġrhubarb": 2415,
      "Ġwhich": 2416,
      "ĠSpaghetti": 2417,
      "ĠDe": 2418,
      "merican": 2419,
      "Ġpreserves": 2420,
      "Ġturmeric": 2421,
      "proof": 2422,
      "ĠSalsa": 2423,
      "Ġsteaks": 2424,
      "aj": 2425,
      "Ġoun": 2426,
      "Ġcarefully": 2427,
      "iron": 2428,
      "Ġsprink": 2429,
      "Ġcheeses": 2430,
      "Ġpinch": 2431,
      "Ġmiddle": 2432,
      "ĠNote": 2433,
      "Ġsn": 2434,
      "ĠKrisp": 2435,
      "Ġjam": 2436,
      "olid": 2437,
      "Ġel": 2438,
      "Ġpretz": 2439,
      "Ġsecond": 2440,
      "Ġcrabmeat": 2441,
      "Ġmoderate": 2442,
      "Ġleave": 2443,
      "Ġ'": 2444,
      "Ġbutterscotch": 2445,
      "virgin": 2446,
      "Ġraspberry": 2447,
      "12": 2448,
      "Ġflavors": 2449,
      "Ġbatch": 2450,
      "ĠTuna": 2451,
      "Ġliqueur": 2452,
      "Ġkernel": 2453,
      "Ġadded": 2454,
      "bo": 2455,
      "Ġ14": 2456,
      "Ġregular": 2457,
      "Ġseasoned": 2458,
      "lit": 2459,
      "fu": 2460,
      "Ġspri": 2461,
      "ecor": 2462,
      "ĠMir": 2463,
      "Ġsharp": 2464,
      "Ġmuffins": 2465,
      "Ġoys": 2466,
      "Ġequ": 2467,
      "Ġrefrigerated": 2468,
      "lined": 2469,
      "ĠAmerican": 2470,
      "Ġopen": 2471,
      "ingers": 2472,
      "Ġabsorbed": 2473,
      "Ġahead": 2474,
      "ĠBest": 2475,
      "thy": 2476,
      "Ġstems": 2477,
      "asily": 2478,
      "Ġconcentrate": 2479,
      "bon": 2480,
      "acle": 2481,
      "Ġinside": 2482,
      "ĠCur": 2483,
      "Ġman": 2484,
      "Ġprefer": 2485,
      "Ġpeaks": 2486,
      "Ġbeets": 2487,
      "Ġtarragon": 2488,
      "Ġindivid": 2489,
      "ud": 2490,
      "ĠMar": 2491,
      "Ġcutter": 2492,
      "Ġforms": 2493,
      "orm": 2494,
      "Ġeasily": 2495,
      "Ġplain": 2496,
      "tender": 2497,
      "Ġquickly": 2498,
      "ara": 2499,
      "ussels": 2500,
      "Ġspat": 2501,
      "ĠSoak": 2502,
      "ĠSm": 2503,
      "hew": 2504,
      "Ġapricot": 2505,
      "Ġrese": 2506,
      "Ġrings": 2507,
      "irc": 2508,
      "Ġpears": 2509,
      "ght": 2510,
      "umm": 2511,
      "bles": 2512,
      "utons": 2513,
      "Ġdel": 2514,
      "Ġartich": 2515,
      "isin": 2516,
      "Ġlowfat": 2517,
      "ĠProcess": 2518,
      "nding": 2519,
      "cho": 2520,
      "air": 2521,
      "ĠSn": 2522,
      "Ġlemons": 2523,
      "Ġlemonade": 2524,
      "Ġspatula": 2525,
      "Ġbar": 2526,
      "randy": 2527,
      "made": 2528,
      "Ġpunch": 2529,
      "Ġway": 2530,
      "ĠCrab": 2531,
      "ĠKrispies": 2532,
      "Ġminced": 2533,
      "ail": 2534,
      "Ġfive": 2535,
      "Ġwithout": 2536,
      "ĠGround": 2537,
      "asagna": 2538,
      "Ġunbaked": 2539,
      "ĠCrust": 2540,
      "Ġhash": 2541,
      "Ġmaking": 2542,
      "Ġmandarin": 2543,
      "ĠBreakfast": 2544,
      "ĠBlueberry": 2545,
      "ĠAlmo": 2546,
      "Ġpickles": 2547,
      "Ġsun": 2548,
      "Ġthermo": 2549,
      "rs": 2550,
      "ĠChees": 2551,
      "ennel": 2552,
      "Ġcirc": 2553,
      "Ġsoups": 2554,
      "ĠPam": 2555,
      "ĠBiscuit": 2556,
      "Ġrolling": 2557,
      "Ġchoice": 2558,
      "Ġlamb": 2559,
      "ĠLow": 2560,
      "ulated": 2561,
      "ĠWal": 2562,
      "ickpe": 2563,
      "meter": 2564,
      "Ġcans": 2565,
      "Ġsauerkraut": 2566,
      "ĠJello": 2567,
      "Ġfollow": 2568,
      "ĠChops": 2569,
      "ĠMiracle": 2570,
      "Ġthermometer": 2571,
      "Ġtbsp": 2572,
      "tils": 2573,
      "ctang": 2574,
      "ugula": 2575,
      "Ġleftover": 2576,
      "ĠTaco": 2577,
      "Ġmuch": 2578,
      "Ġpickle": 2579,
      "ĠBarbecue": 2580,
      "Ġreach": 2581,
      "Ġsec": 2582,
      "Ġeat": 2583,
      "Ġrectang": 2584,
      "ĠCarrot": 2585,
      "Ġcre": 2586,
      "ĠGrand": 2587,
      "Ġknead": 2588,
      "ĠJu": 2589,
      "Ġshallot": 2590,
      "io": 2591,
      "cher": 2592,
      "Ġthaw": 2593,
      "afe": 2594,
      "ĠPo": 2595,
      "aves": 2596,
      "ĠCrock": 2597,
      "ĠCrack": 2598,
      "Ġavocados": 2599,
      "HI": 2600,
      "Ġpear": 2601,
      "ĠRes": 2602,
      "Ġdepe": 2603,
      "ĠCucumber": 2604,
      "175": 2605,
      "EL": 2606,
      "ially": 2607,
      "omemade": 2608,
      "ĠBundt": 2609,
      "Ġinstr": 2610,
      "Ġreduc": 2611,
      "Ġcrumble": 2612,
      "do": 2613,
      "ering": 2614,
      "ĠDump": 2615,
      "sweetened": 2616,
      "ĠUncover": 2617,
      "ĠKnead": 2618,
      "Ġdrink": 2619,
      "asting": 2620,
      "Ġindividual": 2621,
      "ĠSof": 2622,
      "Ġcroutons": 2623,
      "Ġcapers": 2624,
      "ky": 2625,
      "ĠCheesy": 2626,
      "Ġwok": 2627,
      "Ġgener": 2628,
      "Ġdessert": 2629,
      "Ġtins": 2630,
      "uctions": 2631,
      "ĠCand": 2632,
      "Ġits": 2633,
      "Ġcrispy": 2634,
      "Ġgranulated": 2635,
      "Ġweeks": 2636,
      "ĠLime": 2637,
      "ib": 2638,
      "Ġunsweetened": 2639,
      "ĠRa": 2640,
      "Ġmon": 2641,
      "Ġbrandy": 2642,
      "ĠBrownies": 2643,
      "Ġcrusts": 2644,
      "ĠLoaf": 2645,
      "Ġthan": 2646,
      "ĠApples": 2647,
      "ages": 2648,
      "Ġpoppy": 2649,
      "Ġfoam": 2650,
      "mong": 2651,
      "Ġcube": 2652,
      "ĠMon": 2653,
      "Ġamong": 2654,
      "Ġbrowns": 2655,
      "Ġpretzels": 2656,
      "ĠMars": 2657,
      "Ġreserve": 2658,
      "istach": 2659,
      "ĠReserve": 2660,
      "elon": 2661,
      "Ġlentils": 2662,
      "ĠMarinate": 2663,
      "Ġweed": 2664,
      "alor": 2665,
      "Ġricotta": 2666,
      "ĠOven": 2667,
      "ty": 2668,
      "Ġduring": 2669,
      "Ġchile": 2670,
      "Ġskewers": 2671,
      "Ġ,": 2672,
      "Ġiron": 2673,
      "Ġclams": 2674,
      "Ġaway": 2675,
      "Ġpitcher": 2676,
      "OT": 2677,
      "Ġpulp": 2678,
      "Ġcoup": 2679,
      "ĠBaking": 2680,
      "Ġdissolves": 2681,
      "uted": 2682,
      "ĠGood": 2683,
      "Ġbatches": 2684,
      "ĠMacaroni": 2685,
      "ĠMin": 2686,
      "Ġ250": 2687,
      "Ġpesto": 2688,
      "ĠCrush": 2689,
      "Ġinstructions": 2690,
      "irl": 2691,
      "Ġdro": 2692,
      "Ġmini": 2693,
      "inese": 2694,
      "Ġracks": 2695,
      "ĠFrosting": 2696,
      "Ġflatten": 2697,
      "40": 2698,
      "Ġcustard": 2699,
      "Ġhold": 2700,
      "style": 2701,
      "ffle": 2702,
      "Ġteaspoonfuls": 2703,
      "Ġroma": 2704,
      "dr": 2705,
      "ĠBiscuits": 2706,
      "ĠCoffee": 2707,
      "unchy": 2708,
      "oodle": 2709,
      "Ġlook": 2710,
      "Ġcrumbled": 2711,
      "ashion": 2712,
      "Ġends": 2713,
      "bler": 2714,
      "Ġreduced": 2715,
      "Ġstarts": 2716,
      "Ġcornbread": 2717,
      "oked": 2718,
      "ĠPuree": 2719,
      "ĠTea": 2720,
      "Ġline": 2721,
      "ellini": 2722,
      "ĠScall": 2723,
      "Ġpopcorn": 2724,
      "cup": 2725,
      "Ġgri": 2726,
      "safe": 2727,
      "ĠDot": 2728,
      "ĠDream": 2729,
      "ĠMayonnaise": 2730,
      "ĠHe": 2731,
      "Ġsoak": 2732,
      "Ġ55": 2733,
      "Ġspoonfuls": 2734,
      "ĠSup": 2735,
      "ĠDiscard": 2736,
      "cooked": 2737,
      "Ġbest": 2738,
      "eness": 2739,
      "vent": 2740,
      "ĠOld": 2741,
      "ĠSeal": 2742,
      "ieve": 2743,
      "Ġmor": 2744,
      "Ġbubbles": 2745,
      "Ġsandwiches": 2746,
      "Ġbasting": 2747,
      "ĠCob": 2748,
      "Ġfennel": 2749,
      "azed": 2750,
      "Ġbri": 2751,
      "arty": 2752,
      "Ġcashew": 2753,
      "use": 2754,
      "Ġpic": 2755,
      "ifted": 2756,
      "ĠSquares": 2757,
      "ingu": 2758,
      "Ġcoating": 2759,
      "aster": 2760,
      "Ġhearts": 2761,
      "Ġtofu": 2762,
      "Ġgrape": 2763,
      "eringue": 2764,
      "Ġgall": 2765,
      "ĠMustard": 2766,
      "Ġdoneness": 2767,
      "ĠCup": 2768,
      "Ġmed": 2769,
      "ĠJuice": 2770,
      "Ġdishes": 2771,
      "ĠMushrooms": 2772,
      "Ġpita": 2773,
      "ny": 2774,
      "vel": 2775,
      "Ġherb": 2776,
      "Ġmorsels": 2777,
      "ĠSout": 2778,
      "Ġmakes": 2779,
      "ished": 2780,
      "ĠFin": 2781,
      "iento": 2782,
      "ickpeas": 2783,
      "Ġpuff": 2784,
      "terey": 2785,
      "achine": 2786,
      "ĠDelicious": 2787,
      "Ġflaked": 2788,
      "Ġlee": 2789,
      "ĠGra": 2790,
      "Ġmost": 2791,
      "ĠFrost": 2792,
      "Ġgriddle": 2793,
      "ĠChinese": 2794,
      "Ġtransl": 2795,
      "ĠPowder": 2796,
      "Ġradish": 2797,
      "app": 2798,
      "ĠHomemade": 2799,
      "Ġcornfl": 2800,
      "melon": 2801,
      "Ġcard": 2802,
      "Ġarugula": 2803,
      "ER": 2804,
      "urgers": 2805,
      "Tel": 2806,
      "ĠTw": 2807,
      "amom": 2808,
      "Ġequal": 2809,
      "Ġtransluc": 2810,
      "Ġfit": 2811,
      "Ġapricots": 2812,
      "Ġbegin": 2813,
      "Ġtranslucent": 2814,
      "cous": 2815,
      "size": 2816,
      "ita": 2817,
      "ĠCheesecake": 2818,
      "Ġpine": 2819,
      "ĠBasil": 2820,
      "Ġdepending": 2821,
      "Ġac": 2822,
      "IG": 2823,
      "lu": 2824,
      "ĠSimple": 2825,
      "Ġcouple": 2826,
      "ĠSyrup": 2827,
      "ouscous": 2828,
      "Ġhrs": 2829,
      "Ġbetter": 2830,
      "lings": 2831,
      "Ġsifted": 2832,
      "Ġprevent": 2833,
      "Ġprepare": 2834,
      "ourbon": 2835,
      "ĠAvocad": 2836,
      "fish": 2837,
      "inoa": 2838,
      "ettuc": 2839,
      "rant": 2840,
      "ante": 2841,
      "Ġgreat": 2842,
      "ĠNext": 2843,
      "ĠAlmond": 2844,
      "Ġbone": 2845,
      "aro": 2846,
      "Ġpimiento": 2847,
      "60": 2848,
      "Ġchip": 2849,
      "ĠHerb": 2850,
      "Ġrot": 2851,
      "ĠOf": 2852,
      "Ġsetting": 2853,
      "Ġdoes": 2854,
      "aspberry": 2855,
      "Ġver": 2856,
      "ere": 2857,
      "Ġsized": 2858,
      "Ġbul": 2859,
      "hmallow": 2860,
      "Ġwe": 2861,
      "aki": 2862,
      "reek": 2863,
      "flavored": 2864,
      "kew": 2865,
      "ĠEng": 2866,
      "Ġholes": 2867,
      "ĠSeparate": 2868,
      "Ġtopped": 2869,
      "Ġcola": 2870,
      "Ġcreme": 2871,
      "Ġtil": 2872,
      "Ġloaves": 2873,
      "ĠPl": 2874,
      "ĠFish": 2875,
      "ents": 2876,
      "ĠHamburger": 2877,
      "Ġnonfat": 2878,
      "chilada": 2879,
      "Ġdash": 2880,
      "amels": 2881,
      "Ġsqueeze": 2882,
      "Ġrounded": 2883,
      "ĠTaste": 2884,
      "ĠOre": 2885,
      "Ġquarters": 2886,
      "Ġreaches": 2887,
      "ata": 2888,
      "ĠCobbler": 2889,
      "bow": 2890,
      "roll": 2891,
      "arge": 2892,
      "ĠOver": 2893,
      "Ġmoist": 2894,
      "ĠCarefully": 2895,
      "Ġsprigs": 2896,
      "ove": 2897,
      "Ġbase": 2898,
      "ths": 2899,
      "ĠNOT": 2900,
      "ully": 2901,
      "--": 2902,
      "Ġwings": 2903,
      "ĠScoop": 2904,
      "ĠDelight": 2905,
      "ild": 2906,
      "ĠRicotta": 2907,
      "ĠTrim": 2908,
      "efruit": 2909,
      "ĠMarshmallow": 2910,
      "Ġmet": 2911,
      "orp": 2912,
      "Ġpulse": 2913,
      "try": 2914,
      "Ġpartially": 2915,
      "ath": 2916,
      "ĠOnions": 2917,
      "away": 2918,
      "ĠSkillet": 2919,
      "ĠBl": 2920,
      "ajun": 2921,
      "Ġright": 2922,
      "Ġcanned": 2923,
      "ross": 2924,
      "Ġoiled": 2925,
      "Ġfirmly": 2926,
      "ĠFlat": 2927,
      "Ġchickpeas": 2928,
      "Ġrelish": 2929,
      "Ġwra": 2930,
      "ĠPeppers": 2931,
      "Ġvinaigrette": 2932,
      "Ġthinly": 2933,
      "ĠCarrots": 2934,
      "okes": 2935,
      "ĠPancakes": 2936,
      "St": 2937,
      "Ġless": 2938,
      "Ġloos": 2939,
      "erbet": 2940,
      "ĠSmooth": 2941,
      "Ġgoat": 2942,
      "ĠSplit": 2943,
      "Ġabove": 2944,
      "ĠChr": 2945,
      "Ġshap": 2946,
      "Ġtwice": 2947,
      "Ġdog": 2948,
      "ĠSteam": 2949,
      "Ġflore": 2950,
      "ĠAvocado": 2951,
      "uf": 2952,
      "ĠCandy": 2953,
      "IGH": 2954,
      "jon": 2955,
      "Ġmy": 2956,
      "anish": 2957,
      "Ġsunflower": 2958,
      "Ġcashews": 2959,
      "Ġnect": 2960,
      "wdr": 2961,
      "Ġwash": 2962,
      "ette": 2963,
      "ĠLeave": 2964,
      "Ġpoint": 2965,
      "Ġlower": 2966,
      "Ġwalnut": 2967,
      "ĠGreat": 2968,
      "Ġcandied": 2969,
      "Ġtap": 2970,
      "ĠVeg": 2971,
      "Ġending": 2972,
      "Ġsix": 2973,
      "Ġstage": 2974,
      "Ġancho": 2975,
      "ĠJack": 2976,
      "Ġpinto": 2977,
      "Ġadjust": 2978,
      "Ġpancake": 2979,
      "ĠStyle": 2980,
      "Ġremainder": 2981,
      "oultry": 2982,
      "Ġbags": 2983,
      "ecorate": 2984,
      "Ġromaine": 2985,
      "LA": 2986,
      "igor": 2987,
      "Ġpwdr": 2988,
      "inches": 2989,
      "Ġresemb": 2990,
      "Ġpeppercorn": 2991,
      "ĠFrit": 2992,
      "Ġgallon": 2993,
      "Ġokra": 2994,
      "Ġho": 2995,
      "Ġthese": 2996,
      "ĠCon": 2997,
      "ĠAp": 2998,
      "ĠSeed": 2999,
      "Ġincorp": 3000,
      "Ġtight": 3001,
      "Ġpr": 3002,
      "ĠKosher": 3003,
      "ĠDon": 3004,
      "alories": 3005,
      "Ġcardamom": 3006,
      "Ġraw": 3007,
      "adle": 3008,
      "ĠAsparagus": 3009,
      "alf": 3010,
      "Ġtheir": 3011,
      "Ġvigor": 3012,
      "Ġmachine": 3013,
      "Ġes": 3014,
      "Ġsect": 3015,
      "Ġfried": 3016,
      "Ġfully": 3017,
      "ĠFrozen": 3018,
      "ĠWarm": 3019,
      "ity": 3020,
      "etiz": 3021,
      "Ġangel": 3022,
      "ari": 3023,
      "ĠRaspberry": 3024,
      "eez": 3025,
      "ioc": 3026,
      "otted": 3027,
      "ĠSandwiches": 3028,
      "Ġvigorously": 3029,
      "yaki": 3030,
      "top": 3031,
      "Ġkale": 3032,
      "Ġcaramels": 3033,
      "afood": 3034,
      "ĠSoften": 3035,
      "ĠEnglish": 3036,
      "ex": 3037,
      "Ġsolid": 3038,
      "redge": 3039,
      "ĠKaro": 3040,
      "Ġquarts": 3041,
      "ĠGreek": 3042,
      "Ġtest": 3043,
      "ila": 3044,
      "Ġpimentos": 3045,
      "ioca": 3046,
      "ines": 3047,
      "agne": 3048,
      "rib": 3049,
      "ĠDish": 3050,
      "ĠButtermilk": 3051,
      "Ġchunky": 3052,
      "Ġsimmering": 3053,
      "Ġwhisking": 3054,
      "Ġpicante": 3055,
      "tc": 3056,
      "Ġhalfway": 3057,
      "Ġscallops": 3058,
      "Ġsmoke": 3059,
      "ampagne": 3060,
      "Ġbones": 3061,
      "Ġgu": 3062,
      "Ġpoultry": 3063,
      "ĠCO": 3064,
      "Ġcontainers": 3065,
      "ĠSqueeze": 3066,
      "ĠChrist": 3067,
      "ial": 3068,
      "umps": 3069,
      "Ġpacket": 3070,
      "mas": 3071,
      "Ġmeasure": 3072,
      "ear": 3073,
      "Ġwide": 3074,
      "ĠDough": 3075,
      "ĠYogurt": 3076,
      "ashioned": 3077,
      "Ġpistach": 3078,
      "Ġslotted": 3079,
      "Ġbas": 3080,
      "usages": 3081,
      "Ġrounds": 3082,
      "eriyaki": 3083,
      "45": 3084,
      "Ġsieve": 3085,
      "Ġbig": 3086,
      "ĠCornbread": 3087,
      "Ġpossible": 3088,
      "Ġnice": 3089,
      "Ġkettle": 3090,
      "ountry": 3091,
      "ither": 3092,
      "oli": 3093,
      "add": 3094,
      "itz": 3095,
      "Ġent": 3096,
      "Ġtouch": 3097,
      "ĠPack": 3098,
      "ĠMy": 3099,
      "Ġjalapenos": 3100,
      "Ġetc": 3101,
      "ĠAngel": 3102,
      "inguine": 3103,
      "ptional": 3104,
      "esh": 3105,
      "ĠRanch": 3106,
      "Ġcaraway": 3107,
      "Ġtossing": 3108,
      "sized": 3109,
      "yre": 3110,
      "ĠPr": 3111,
      "ĠFlatten": 3112,
      "Ġdice": 3113,
      "ached": 3114,
      "ĠLarge": 3115,
      "ĠHIGH": 3116,
      "Ġcome": 3117,
      "Ġ--": 3118,
      "Ġounces": 3119,
      "ĠMom": 3120,
      "Ġweek": 3121,
      "Ġflorets": 3122,
      "amole": 3123,
      "Ġthird": 3124,
      "ĠOne": 3125,
      "Ġsift": 3126,
      "ĠSesame": 3127,
      "acamole": 3128,
      "ĠPickles": 3129,
      "Ġmeringue": 3130,
      "ĠShe": 3131,
      "ĠDice": 3132,
      "quila": 3133,
      "Ġ180": 3134,
      "Ġelbow": 3135,
      "be": 3136,
      "otle": 3137,
      "ning": 3138,
      "alade": 3139,
      "ĠBar": 3140,
      "ĠMeatballs": 3141,
      "Ġbecom": 3142,
      "Ġgi": 3143,
      "que": 3144,
      "ĠVinegar": 3145,
      "ĠGo": 3146,
      "Ġscrap": 3147,
      "Ġbarley": 3148,
      "Ġdrops": 3149,
      "Ġfrag": 3150,
      "rye": 3151,
      "isket": 3152,
      "istrib": 3153,
      "Ġgrapefruit": 3154,
      "Ġroot": 3155,
      "ente": 3156,
      "Ġfruits": 3157,
      "Ġcross": 3158,
      "Ġeasy": 3159,
      "ĠAltern": 3160,
      "Ġrye": 3161,
      "Ġouts": 3162,
      "Ġstyle": 3163,
      "Ġripe": 3164,
      "ĠChristmas": 3165,
      "jor": 3166,
      "ĠRom": 3167,
      "Ġpeppercorns": 3168,
      "Ġfingers": 3169,
      "cl": 3170,
      "Ġmug": 3171,
      "yrex": 3172,
      "Ġplac": 3173,
      "Ġcakes": 3174,
      "Ġskins": 3175,
      "Ġcolander": 3176,
      "Ġcareful": 3177,
      "Ġtenderloin": 3178,
      "Ġsqueez": 3179,
      "Ġthawed": 3180,
      "BQ": 3181,
      "nels": 3182,
      "Ġwould": 3183,
      "ĠGrate": 3184,
      "bling": 3185,
      "Ġsherbet": 3186,
      "Ġfilled": 3187,
      "ĠSlaw": 3188,
      "azel": 3189,
      "ĠRaisin": 3190,
      "inning": 3191,
      "ĠMarinated": 3192,
      "ĠApric": 3193,
      "joram": 3194,
      "ĠTopping": 3195,
      "ĠMonterey": 3196,
      "ella": 3197,
      "Ġsee": 3198,
      "efore": 3199,
      "Ġ200": 3200,
      "Ġmeasuring": 3201,
      "Ġtoothpicks": 3202,
      "Ġbecomes": 3203,
      "omeg": 3204,
      "Ġentire": 3205,
      "Ġlu": 3206,
      "ĠTor": 3207,
      "erman": 3208,
      "nt": 3209,
      "Ġtriang": 3210,
      "asure": 3211,
      "Ġbitters": 3212,
      "Ġquarter": 3213,
      "Ġnectar": 3214,
      "ĠBall": 3215,
      "Ġshort": 3216,
      "omegran": 3217,
      "Ġdente": 3218,
      "ĠStart": 3219,
      "Ġcouscous": 3220,
      "omme": 3221,
      "Ġsweetened": 3222,
      "itos": 3223,
      "eless": 3224,
      "Ġartichokes": 3225,
      "ĠGrandma": 3226,
      "ĠCreme": 3227,
      "ĠBBQ": 3228,
      "ĠAd": 3229,
      "ĠDor": 3230,
      "ĠFat": 3231,
      "ĠWine": 3232,
      "ĠJo": 3233,
      "blong": 3234,
      "Ġpower": 3235,
      "mix": 3236,
      "ĠCre": 3237,
      "Ġbran": 3238,
      "ĠDijon": 3239,
      "ĠRel": 3240,
      "Ġmarjoram": 3241,
      "Ġfragrant": 3242,
      "ĠCakes": 3243,
      "ĠWork": 3244,
      "ĠSpiced": 3245,
      "Ġtapioca": 3246,
      "Ġsimple": 3247,
      "Ġoz": 3248,
      "Ġsausages": 3249,
      "Ġshred": 3250,
      "ĠMeasure": 3251,
      "Ġportions": 3252,
      "ax": 3253,
      "ball": 3254,
      "ĠDill": 3255,
      "Ġsecure": 3256,
      "Ġmetal": 3257,
      "ĠCurry": 3258,
      "ĠScallop": 3259,
      "omegranate": 3260,
      "ĠCold": 3261,
      "Ġnear": 3262,
      "Ġkernels": 3263,
      "Ġleeks": 3264,
      "kewarm": 3265,
      "Ġoblong": 3266,
      "ily": 3267,
      "ama": 3268,
      "urg": 3269,
      "Ġcubed": 3270,
      "Ġoysters": 3271,
      "Ġlukewarm": 3272,
      "Ġwas": 3273,
      "Ġgenerously": 3274,
      "Ġwatermelon": 3275,
      "ĠTater": 3276,
      "Ġboils": 3277,
      "Ġhandle": 3278,
      "ĠCal": 3279,
      "ĠCocktail": 3280,
      "Ġcrockpot": 3281,
      "Ġstarting": 3282,
      "Ġdivide": 3283,
      "ĠBo": 3284,
      "ĠNoodles": 3285,
      "Ġparts": 3286,
      "ĠSum": 3287,
      "ĠScr": 3288,
      "ĠVegetables": 3289,
      "ank": 3290,
      "Ġfrost": 3291,
      "lean": 3292,
      "Ġbottle": 3293,
      "ĠTex": 3294,
      "ĠRelish": 3295,
      "atur": 3296,
      "Ġsea": 3297,
      "Ġdipping": 3298,
      "ĠCajun": 3299,
      "ĠPop": 3300,
      "ĠParty": 3301,
      "Ġmanuf": 3302,
      "Ġfillet": 3303,
      "form": 3304,
      "law": 3305,
      "Ġster": 3306,
      "Ġlasagna": 3307,
      "lenda": 3308,
      "ĠQuiche": 3309,
      "ina": 3310,
      "ĠSoy": 3311,
      "ĠPh": 3312,
      "Ġswiss": 3313,
      "Ġoutside": 3314,
      "ĠMint": 3315,
      "ĠImm": 3316,
      "ĠGerman": 3317,
      "ĠSummer": 3318,
      "Ġpressing": 3319,
      "ĠDinner": 3320,
      "Ġthere": 3321,
      "ton": 3322,
      "Ġtoppings": 3323,
      "ĠApricot": 3324,
      "Ġboiled": 3325,
      "itr": 3326,
      "Ġblending": 3327,
      "per": 3328,
      "Ġsepar": 3329,
      "ĠCookie": 3330,
      "Ġuncooked": 3331,
      "ĠFeta": 3332,
      "ĠImmediately": 3333,
      "90": 3334,
      "Ġfinish": 3335,
      "Ġbrownie": 3336,
      "Ġradishes": 3337,
      "ĠTortill": 3338,
      "Co": 3339,
      "Ġcracked": 3340,
      "Ġfoamy": 3341,
      "ĠWill": 3342,
      "liver": 3343,
      "18": 3344,
      "utney": 3345,
      "ala": 3346,
      "igs": 3347,
      "Ġtex": 3348,
      "ĠNow": 3349,
      "Ġmanufact": 3350,
      "ĠWheat": 3351,
      "Ġclub": 3352,
      "Ġcircle": 3353,
      "ĠMaple": 3354,
      "Ġrec": 3355,
      "mmed": 3356,
      "Ġlump": 3357,
      "Ġquinoa": 3358,
      "Ġwilted": 3359,
      "Ġmanufactur": 3360,
      "mint": 3361,
      "Ġpull": 3362,
      "ĠIr": 3363,
      "ĠSpanish": 3364,
      "Ġmarm": 3365,
      "Ġenchilada": 3366,
      "ĠVegg": 3367,
      "Ġcoarsely": 3368,
      "Ġrunning": 3369,
      "Ġboneless": 3370,
      "ĠCauliflower": 3371,
      "Ġrepeat": 3372,
      "Ġdot": 3373,
      "Ġlater": 3374,
      "ĠNoodle": 3375,
      "ban": 3376,
      "ĠMango": 3377,
      "Ġpancakes": 3378,
      "ĠVinaigrette": 3379,
      "ĠBrussels": 3380,
      "Ġbubbling": 3381,
      "not": 3382,
      "Ġlumps": 3383,
      "ĠFavorite": 3384,
      "Ġranch": 3385,
      "ĠChowder": 3386,
      "Ġresembles": 3387,
      "Ġfire": 3388,
      "ĠPesto": 3389,
      "Ġund": 3390,
      "ĠArtich": 3391,
      "Ġtexture": 3392,
      "ĠFilling": 3393,
      "Ġflame": 3394,
      "Ġovenproof": 3395,
      "Ġfryer": 3396,
      "Ġsliver": 3397,
      "ĠBefore": 3398,
      "Ġ17": 3399,
      "Ġflavored": 3400,
      "Ġoyster": 3401,
      "Ġacross": 3402,
      "ĠChips": 3403,
      "Ġmarmalade": 3404,
      "iut": 3405,
      "uss": 3406,
      "Ġcornflakes": 3407,
      "ummy": 3408,
      "AT": 3409,
      "chen": 3410,
      "Ġdoll": 3411,
      "Ġeither": 3412,
      "Ġcrush": 3413,
      "ĠFreshly": 3414,
      "Ġmas": 3415,
      "ĠCooking": 3416,
      "Ġbourbon": 3417,
      "Ġbagu": 3418,
      "Ġshapes": 3419,
      "Ġscraping": 3420,
      "ĠCustard": 3421,
      "isted": 3422,
      "Ġloin": 3423,
      "iny": 3424,
      "Ġdelicious": 3425,
      "iutto": 3426,
      "Ġfudge": 3427,
      "Ġchar": 3428,
      "35": 3429,
      "ph": 3430,
      "itchen": 3431,
      "Ġveal": 3432,
      "Ch": 3433,
      "root": 3434,
      "ĠTr": 3435,
      "ĠLight": 3436,
      "Ġslicing": 3437,
      "sciutto": 3438,
      "Ġsqueezed": 3439,
      "ĠDoritos": 3440,
      "ald": 3441,
      "ĠPyrex": 3442,
      "ĠRitz": 3443,
      "ĠHash": 3444,
      "Ġplum": 3445,
      "ami": 3446,
      "VE": 3447,
      "ead": 3448,
      "arf": 3449,
      "ppers": 3450,
      "Ġtequila": 3451,
      "ĠGrind": 3452,
      "mit": 3453,
      "Ġdust": 3454,
      "Ġounce": 3455,
      "Ġcore": 3456,
      "ĠFood": 3457,
      "ĠLower": 3458,
      "Ġroasted": 3459,
      "Ġbeginning": 3460,
      "Ġcalories": 3461,
      "ance": 3462,
      "Ġgrate": 3463,
      "Ġitalian": 3464,
      "Ġusually": 3465,
      "Ġrectangle": 3466,
      "ord": 3467,
      "acho": 3468,
      "rained": 3469,
      "Ġgranu": 3470,
      "ears": 3471,
      "Ġcoals": 3472,
      "agon": 3473,
      "Ġtast": 3474,
      "Ġwedge": 3475,
      "Ġcrunchy": 3476,
      "ople": 3477,
      "Ġstrainer": 3478,
      "ĠThaw": 3479,
      "Ġdoubled": 3480,
      "ĠMarinade": 3481,
      "ĠSmoothie": 3482,
      "LAD": 3483,
      "Ġbeater": 3484,
      "Ġcrusty": 3485,
      "Ġhandful": 3486,
      "Ġqt": 3487,
      "Ġcloth": 3488,
      "ioli": 3489,
      "ugar": 3490,
      "ĠCrunch": 3491,
      "Up": 3492,
      "Ġlisted": 3493,
      "Ġtes": 3494,
      "ĠPuff": 3495,
      "Ġhow": 3496,
      "antal": 3497,
      "Ġskinless": 3498,
      "cing": 3499,
      "Ġcooling": 3500,
      "hy": 3501,
      "Ġdump": 3502,
      "vert": 3503,
      "tein": 3504,
      "Ġfollowing": 3505,
      "ĠSun": 3506,
      "Ġnight": 3507,
      "ĠGran": 3508,
      "ousse": 3509,
      "Ġcrosswise": 3510,
      "Ġbath": 3511,
      "Ġlinguine": 3512,
      "ĠGlazed": 3513,
      "ĠWalnut": 3514,
      "Ġincorporated": 3515,
      "iskey": 3516,
      "ĠRhubarb": 3517,
      "Ġread": 3518,
      "Ġring": 3519,
      "Ġturns": 3520,
      "Ġsticky": 3521,
      "Ġcaps": 3522,
      "Ġfettuc": 3523,
      "ĠParsley": 3524,
      "Ġheap": 3525,
      "ĠBatter": 3526,
      "Ġfrothy": 3527,
      "Ġwarmed": 3528,
      "Ġscrape": 3529,
      "Ġscallion": 3530,
      "ĠGravy": 3531,
      "Ġgranules": 3532,
      "Ġcast": 3533,
      "irloin": 3534,
      "antaloup": 3535,
      "ĠLasagna": 3536,
      "ĠCelery": 3537,
      "Ġsnow": 3538,
      "Ġsmaller": 3539,
      "itrus": 3540,
      "Ġpint": 3541,
      "ĠSpice": 3542,
      "ĠSplenda": 3543,
      "Ġartichoke": 3544,
      "Ġmelon": 3545,
      "king": 3546,
      "ĠHeal": 3547,
      "orning": 3548,
      "Ġzip": 3549,
      "ĠEggplant": 3550,
      "Ġleft": 3551,
      "except": 3552,
      "Ġav": 3553,
      "Ġgiven": 3554,
      "press": 3555,
      "Ġlard": 3556,
      "ĠPear": 3557,
      "Ġsprinkled": 3558,
      "ĠSupreme": 3559,
      "Ġmanufacturer": 3560,
      "anc": 3561,
      "ĠPea": 3562,
      "Ġpeeled": 3563,
      "Ġmonths": 3564,
      "ĠOreo": 3565,
      "ti": 3566,
      "Ġtall": 3567,
      "ĠNew": 3568,
      "ĠJam": 3569,
      "vil": 3570,
      "Ġlin": 3571,
      "Ġlarger": 3572,
      "Ġcorned": 3573,
      "Ġportion": 3574,
      "lease": 3575,
      "ĠClean": 3576,
      "Ġreheat": 3577,
      "abo": 3578,
      "Ġrim": 3579,
      "ĠScalloped": 3580,
      "Ġbaguette": 3581,
      "Ġunflavored": 3582,
      "Ġrefri": 3583,
      "Ġbecome": 3584,
      "oo": 3585,
      "ence": 3586,
      "ĠPap": 3587,
      "ĠAm": 3588,
      "ĠAdjust": 3589,
      "Ġair": 3590,
      "eeps": 3591,
      "Ġsteril": 3592,
      "ipped": 3593,
      "ken": 3594,
      "asa": 3595,
      "Ġgrits": 3596,
      "Ġsections": 3597,
      "ĠPer": 3598,
      "ĠLadle": 3599,
      "Ġtablespoonfuls": 3600,
      "antaloupe": 3601,
      "melet": 3602,
      "ĠIcing": 3603,
      "ĠAsian": 3604,
      "ON": 3605,
      "by": 3606,
      "burg": 3607,
      "ĠShred": 3608,
      "'re": 3609,
      "Ġflip": 3610,
      "arkling": 3611,
      "ĠBrand": 3612,
      "ĠMini": 3613,
      "Ġoverb": 3614,
      "Ġbrisket": 3615,
      "chiladas": 3616,
      "ĠIrish": 3617,
      "ĠSoda": 3618,
      "arter": 3619,
      "Ġhel": 3620,
      "esson": 3621,
      "Ġovercook": 3622,
      "ĠLi": 3623,
      "ĠPeas": 3624,
      "bster": 3625,
      "istribute": 3626,
      "cle": 3627,
      "ĠMed": 3628,
      "Ġsticking": 3629,
      "ING": 3630,
      "ĠCol": 3631,
      "ĠMashed": 3632,
      "Ġsave": 3633,
      "aya": 3634,
      "ĠWa": 3635,
      "hern": 3636,
      "ĠCheck": 3637,
      "Ġthigh": 3638,
      "OW": 3639,
      "Ġmaker": 3640,
      "Ġgive": 3641,
      "ĠAt": 3642,
      "Ġpressure": 3643,
      "ĠDou": 3644,
      "venly": 3645,
      "opt": 3646,
      "Ġmeats": 3647,
      "Ġwild": 3648,
      "ĠArtichoke": 3649,
      "Ġpeople": 3650,
      "ĠCocoa": 3651,
      "ĠDate": 3652,
      "ĠWesson": 3653,
      "ĠRosemary": 3654,
      "Ġleftovers": 3655,
      "iw": 3656,
      "vers": 3657,
      "Ġstarch": 3658,
      "Ġflower": 3659,
      "Ġact": 3660,
      "Ġcolo": 3661,
      "Ġgerm": 3662,
      "ĠGolden": 3663,
      "Ġconten": 3664,
      "Ġgrilled": 3665,
      ");": 3666,
      "ĠDust": 3667,
      "ĠGu": 3668,
      "Ġcolored": 3669,
      "ffles": 3670,
      "Ġspreading": 3671,
      "ipes": 3672,
      "lose": 3673,
      "ĠHal": 3674,
      "ĠRomano": 3675,
      "optional": 3676,
      "Ġop": 3677,
      "itional": 3678,
      "oliday": 3679,
      "gr": 3680,
      "ple": 3681,
      "tini": 3682,
      "Ġpier": 3683,
      "ielb": 3684,
      "parent": 3685,
      "Ġinstead": 3686,
      "Ġbrowning": 3687,
      "rawn": 3688,
      "Ġdiagon": 3689,
      "Ġsterilized": 3690,
      "ĠDredge": 3691,
      "cks": 3692,
      "Ġdinner": 3693,
      "ĠBurgers": 3694,
      "Ġclose": 3695,
      "ounts": 3696,
      "vol": 3697,
      "ison": 3698,
      "ffin": 3699,
      "mpty": 3700,
      "Ġcontin": 3701,
      "Ġsweetener": 3702,
      "awai": 3703,
      "Ġtransparent": 3704,
      "atine": 3705,
      "redo": 3706,
      "Ġstring": 3707,
      "ĠWhole": 3708,
      "Ġpure": 3709,
      "iso": 3710,
      "Ġanise": 3711,
      "Ġoptional": 3712,
      "Ġwaffle": 3713,
      "ĠTear": 3714,
      "ahini": 3715,
      "ĠGlaze": 3716,
      "err": 3717,
      "ĠMold": 3718,
      "ĠShort": 3719,
      "ĠApplesauce": 3720,
      "banzo": 3721,
      "fredo": 3722,
      "Ġbrownies": 3723,
      "zes": 3724,
      "Ġpomegranate": 3725,
      "ĠCamp": 3726,
      "Ġlim": 3727,
      "ĠTort": 3728,
      "ĠStick": 3729,
      "Ġskewer": 3730,
      "Ġheaping": 3731,
      "sugar": 3732,
      "ĠBas": 3733,
      "ĠAb": 3734,
      "Ġgarn": 3735,
      "Ġslivered": 3736,
      "cine": 3737,
      "ium": 3738,
      "ron": 3739,
      "Ġwafer": 3740,
      "Ġloosely": 3741,
      "etizer": 3742,
      "awaiian": 3743,
      "Ġfinger": 3744,
      "Ġstem": 3745,
      "ĠSmoked": 3746,
      "Ġdogs": 3747,
      "ĠTortilla": 3748,
      "ielbasa": 3749,
      "for": 3750,
      "Ġsirloin": 3751,
      "amen": 3752,
      "ĠSouthern": 3753,
      "Ġseam": 3754,
      "agle": 3755,
      "Ġblueberry": 3756,
      "arbecu": 3757,
      "araffin": 3758,
      "ĠDumplings": 3759,
      "rout": 3760,
      "ĠPHI": 3761,
      "ĠCooker": 3762,
      "ushy": 3763,
      "Ġstrip": 3764,
      "ĠX": 3765,
      "Ġpod": 3766,
      "Ġparaffin": 3767,
      "usc": 3768,
      "ĠPecans": 3769,
      "Ġdollop": 3770,
      "hey": 3771,
      "rie": 3772,
      "Ġlevel": 3773,
      "kins": 3774,
      "Ġfigs": 3775,
      "ĠBreasts": 3776,
      "Ġmartini": 3777,
      "Ġpuffed": 3778,
      "ao": 3779,
      "ye": 3780,
      "Ġomit": 3781,
      "ĠCountry": 3782,
      "Ġgelatine": 3783,
      "volone": 3784,
      "Ġhazel": 3785,
      "ĠAcc": 3786,
      "Ġbott": 3787,
      "ĠTender": 3788,
      "ĠDouble": 3789,
      ".,": 3790,
      "de": 3791,
      "ko": 3792,
      "Ġtr": 3793,
      "ĠBay": 3794,
      "Ġwhiskey": 3795,
      "ĠOri": 3796,
      "ĠVeggie": 3797,
      "half": 3798,
      "ĠBerry": 3799,
      "Ġ275": 3800,
      "ĠEagle": 3801,
      "ĠVery": 3802,
      "Ġamounts": 3803,
      "ĠBaste": 3804,
      "ĠThese": 3805,
      "ause": 3806,
      "cream": 3807,
      "Ġbeing": 3808,
      "ĠDeep": 3809,
      "ĠStro": 3810,
      "Ġcupcake": 3811,
      "Ġpickling": 3812,
      "ios": 3813,
      "Ġpers": 3814,
      "ĠInc": 3815,
      "ĠHawaiian": 3816,
      "ĠCilantro": 3817,
      "mold": 3818,
      "ations": 3819,
      "Ġteriyaki": 3820,
      "arsn": 3821,
      "Ġmolds": 3822,
      "ĠBran": 3823,
      "Ġprun": 3824,
      "Pot": 3825,
      "Ġtwist": 3826,
      "ELP": 3827,
      "bell": 3828,
      "Ġown": 3829,
      "ĠDecorate": 3830,
      "HIA": 3831,
      "ĠTexas": 3832,
      "LADELP": 3833,
      "ĠPHILADELP": 3834,
      "ĠPHILADELPHIA": 3835,
      "bone": 3836,
      "uid": 3837,
      "Ġtot": 3838,
      "Ġchampagne": 3839,
      "Ġcutlets": 3840,
      "All": 3841,
      "ouffle": 3842,
      "enison": 3843,
      "ĠPet": 3844,
      "Ġpeppermint": 3845,
      "ĠSouth": 3846,
      "Ġtriangles": 3847,
      "ĠBalsamic": 3848,
      "Ġhole": 3849,
      "efly": 3850,
      "arbecued": 3851,
      "Ġnic": 3852,
      "Ġrame": 3853,
      "ĠJalapen": 3854,
      "arfa": 3855,
      "Ġgin": 3856,
      "Ġtort": 3857,
      "Ġfinished": 3858,
      "Ġcreate": 3859,
      "Ġcontents": 3860,
      "geal": 3861,
      "Ġfluid": 3862,
      "ecial": 3863,
      "Style": 3864,
      "ĠAlternate": 3865,
      "ants": 3866,
      "alo": 3867,
      "Ġreal": 3868,
      "ĠWe": 3869,
      "ĠStuffing": 3870,
      "ahlu": 3871,
      "Ġsprinkles": 3872,
      "ĠCracker": 3873,
      "cloth": 3874,
      "ĠOpen": 3875,
      "ĠSeasoning": 3876,
      "Ġremoved": 3877,
      "ahlua": 3878,
      "ameter": 3879,
      "Ġ160": 3880,
      "Ġgarnished": 3881,
      "ibs": 3882,
      "Ġworcestershire": 3883,
      "Ġgets": 3884,
      "umbo": 3885,
      "ĠScrape": 3886,
      "ummus": 3887,
      "ĠSnack": 3888,
      "OL": 3889,
      "Ġbare": 3890,
      "Ġwish": 3891,
      "onz": 3892,
      "Ġblackberries": 3893,
      "Ġcantaloupe": 3894,
      "Ġwithin": 3895,
      "Ġclam": 3896,
      "aes": 3897,
      "Ġeight": 3898,
      "unt": 3899,
      "oriz": 3900,
      "Ġflake": 3901,
      "ably": 3902,
      "ĠLamb": 3903,
      "Ġrimmed": 3904,
      "Ġalternating": 3905,
      "orbet": 3906,
      "Ġhen": 3907,
      "Ġcav": 3908,
      "Ġliking": 3909,
      "ĠFluff": 3910,
      "Ġcandies": 3911,
      "Ġtortellini": 3912,
      "Ġdecor": 3913,
      "Ġorzo": 3914,
      "Ġslits": 3915,
      "Free": 3916,
      "ory": 3917,
      "loaf": 3918,
      "ĠCrunchy": 3919,
      "ganoff": 3920,
      "ign": 3921,
      ".).": 3922,
      "land": 3923,
      "Ġmound": 3924,
      "Ġpenne": 3925,
      "Ġflesh": 3926,
      "Ġchilli": 3927,
      "Ġspoonful": 3928,
      "ĠCrispy": 3929,
      "ET": 3930,
      "ouse": 3931,
      "Ġstream": 3932,
      "ĠThin": 3933,
      "Ġmasher": 3934,
      "ĠNOTE": 3935,
      "Ġnicely": 3936,
      "Can": 3937,
      "vies": 3938,
      "amily": 3939,
      "Ġbeet": 3940,
      "ĠThai": 3941,
      "ĠHave": 3942,
      "Ġscr": 3943,
      "ĠFlip": 3944,
      "Ġbriefly": 3945,
      "ĠCreole": 3946,
      "Fat": 3947,
      "Ġmorning": 3948,
      "ĠDog": 3949,
      "ĠLen": 3950,
      "Ġheal": 3951,
      "Ġdiameter": 3952,
      "alable": 3953,
      "org": 3954,
      "ĠFo": 3955,
      "Ġhamburg": 3956,
      "bq": 3957,
      "areri": 3958,
      "luding": 3959,
      "rise": 3960,
      "ĠPol": 3961,
      "cha": 3962,
      "Ġpackets": 3963,
      "Ġsprig": 3964,
      "Ġdeli": 3965,
      "esad": 3966,
      "ĠPul": 3967,
      "ĠComp": 3968,
      "ĠThey": 3969,
      "Ġbroken": 3970,
      "Ġcooks": 3971,
      "ĠHoliday": 3972,
      "ĠSave": 3973,
      "Ġpounds": 3974,
      "ĠAbout": 3975,
      "areribs": 3976,
      "arian": 3977,
      "ĠCider": 3978,
      "Ġcheesecloth": 3979,
      "ominy": 3980,
      "cs": 3981,
      "Ġgone": 3982,
      "ĠWild": 3983,
      "Ġkiw": 3984,
      "sticks": 3985,
      "Th": 3986,
      "ean": 3987,
      "illed": 3988,
      "180": 3989,
      "Ġliners": 3990,
      "If": 3991,
      "bro": 3992,
      "kes": 3993,
      "ĠServing": 3994,
      "ĠBowl": 3995,
      "Ġgarbanzo": 3996,
      "Ġcircles": 3997,
      "Ġcontinu": 3998,
      "ez": 3999,
      "Ġburgers": 4000,
      "ĠCap": 4001,
      "ĠMac": 4002,
      "Ġreally": 4003,
      "Ġsparkling": 4004,
      "ĠWH": 4005,
      "Ġchipotle": 4006,
      "ĠStroganoff": 4007,
      "orizo": 4008,
      "16": 4009,
      "Ġpies": 4010,
      "ĠBell": 4011,
      "Ġmince": 4012,
      "Ġmois": 4013,
      "Ġresealable": 4014,
      "Ġpistachios": 4015,
      "with": 4016,
      "etta": 4017,
      "Ġsafe": 4018,
      "Ġnow": 4019,
      "ryst": 4020,
      "ĠCrackers": 4021,
      "Ġmussels": 4022,
      "ĠKahlua": 4023,
      "ĠButterscotch": 4024,
      "ĠEnchiladas": 4025,
      "ĠCurried": 4026,
      "ĠAccent": 4027,
      "Ġbarely": 4028,
      "cress": 4029,
      "ndue": 4030,
      "Ġpurp": 4031,
      "ĠPull": 4032,
      "rais": 4033,
      "Ġseafood": 4034,
      "uffalo": 4035,
      "Ġpureed": 4036,
      "Ġ:": 4037,
      "Ġtip": 4038,
      "ĠCups": 4039,
      "Ġdoesn": 4040,
      "AC": 4041,
      "aque": 4042,
      "uy": 4043,
      "urrit": 4044,
      "ĠOys": 4045,
      "ĠCampbell": 4046,
      "Ġdis": 4047,
      "Ġgrind": 4048,
      "Ġcheck": 4049,
      "Ġsmoked": 4050,
      "...": 4051,
      "ĠDevil": 4052,
      "la": 4053,
      "place": 4054,
      "ĠBarbecued": 4055,
      "Ġcombin": 4056,
      "iffer": 4057,
      "ĠUnroll": 4058,
      "Ġbrushing": 4059,
      "Ġgenerous": 4060,
      "ĠFinely": 4061,
      "Fry": 4062,
      "Ġpcs": 4063,
      "ĠAlso": 4064,
      "ĠZest": 4065,
      "ettes": 4066,
      "Ġshav": 4067,
      "ginal": 4068,
      "ĠStrawberries": 4069,
      "Ġpints": 4070,
      "Ġguacamole": 4071,
      "you": 4072,
      "Ġbed": 4073,
      "Ġswirl": 4074,
      "ĠEat": 4075,
      "ĠNuts": 4076,
      "ĠIncrease": 4077,
      "acos": 4078,
      "atever": 4079,
      "Ġdipped": 4080,
      "ĠSuper": 4081,
      "Ġseparately": 4082,
      "Ġrefried": 4083,
      "Ġthighs": 4084,
      "Ġactive": 4085,
      "CE": 4086,
      "Ġsaff": 4087,
      "ĠExt": 4088,
      "Ġhelp": 4089,
      "ĠPulse": 4090,
      "the": 4091,
      "Ġsom": 4092,
      "Ġsauteed": 4093,
      "Ġgranola": 4094,
      "Ġprunes": 4095,
      "ĠMousse": 4096,
      "ĠRibs": 4097,
      "elli": 4098,
      "ĠWatch": 4099,
      "semb": 4100,
      "Ġcovering": 4101,
      "Ġmoderately": 4102,
      "Ġeas": 4103,
      "ĠPretz": 4104,
      "ĠWalnuts": 4105,
      "presso": 4106,
      "ĠTart": 4107,
      "ĠWings": 4108,
      "ĠBeer": 4109,
      "ĠYellow": 4110,
      "Ġclos": 4111,
      "ĠPopcorn": 4112,
      "Ġopaque": 4113,
      "Ġsplit": 4114,
      "Ġreads": 4115,
      "bb": 4116,
      "cetta": 4117,
      "uth": 4118,
      "Ġdamp": 4119,
      "chi": 4120,
      "Ġskim": 4121,
      "Ġconsomme": 4122,
      "ĠClam": 4123,
      "che": 4124,
      "ik": 4125,
      "Ġthread": 4126,
      "Ġslaw": 4127,
      "Ġprosciutto": 4128,
      "Ġtahini": 4129,
      "Ġsteep": 4130,
      "Ġsauc": 4131,
      "ĠInd": 4132,
      "ĠGrape": 4133,
      "atural": 4134,
      "uten": 4135,
      "Ġfran": 4136,
      "Ġatt": 4137,
      "ĠDO": 4138,
      "Ġplus": 4139,
      "Ġlog": 4140,
      "Ġfrypan": 4141,
      "Ġsmok": 4142,
      "Ġanchovies": 4143,
      "Ġoverbake": 4144,
      "Ġstored": 4145,
      "ĠAunt": 4146,
      "ĠFir": 4147,
      "Ġworks": 4148,
      "ĠBasic": 4149,
      "Ġbottles": 4150,
      "ĠWHIP": 4151,
      "ca": 4152,
      "itas": 4153,
      "elf": 4154,
      "mber": 4155,
      "Ġespresso": 4156,
      "carp": 4157,
      "Ġcould": 4158,
      "acao": 4159,
      "Ġsalami": 4160,
      "Ġnew": 4161,
      "Ġpatty": 4162,
      "Ġpods": 4163,
      "Ġmoisture": 4164,
      "carpone": 4165,
      "ĠDay": 4166,
      "phia": 4167,
      "ket": 4168,
      "elphia": 4169,
      "Ġflax": 4170,
      "Ġshaking": 4171,
      "Ġtorn": 4172,
      "Ġharden": 4173,
      "Ġbecause": 4174,
      "rawns": 4175,
      "350": 4176,
      "AK": 4177,
      "ints": 4178,
      "uty": 4179,
      "Ġfur": 4180,
      "ĠRum": 4181,
      "Ġsteamed": 4182,
      "iladelphia": 4183,
      "hot": 4184,
      "Ġserr": 4185,
      "ĠCitrus": 4186,
      "berg": 4187,
      "like": 4188,
      "ĠAlfredo": 4189,
      "ĠPickled": 4190,
      "ĠHealthy": 4191,
      "cut": 4192,
      "Ġtam": 4193,
      "iter": 4194,
      "ĠSec": 4195,
      "ĠPoppy": 4196,
      "ĠJalapeno": 4197,
      "190": 4198,
      "Ġchutney": 4199,
      "Ġbutternut": 4200,
      "ĠTO": 4201,
      "avour": 4202,
      "lock": 4203,
      "aesar": 4204,
      "HE": 4205,
      "Ġ+": 4206,
      "Ġrap": 4207,
      "Ġkind": 4208,
      "enta": 4209,
      "Ġfurther": 4210,
      "no": 4211,
      "ada": 4212,
      "Ġweight": 4213,
      "Ġwhatever": 4214,
      "ways": 4215,
      "ĠShell": 4216,
      "ĠSeafood": 4217,
      "Ġgingerroot": 4218,
      "can": 4219,
      "enty": 4220,
      "Ġbulk": 4221,
      "ical": 4222,
      "amble": 4223,
      "ĠVegan": 4224,
      "OU": 4225,
      "acc": 4226,
      "Ġ100": 4227,
      "icrowav": 4228,
      "Ġbubble": 4229,
      "200": 4230,
      "ĠMinute": 4231,
      "min": 4232,
      "Ġcent": 4233,
      "Ġparsn": 4234,
      "Ġdiffer": 4235,
      "ĠTre": 4236,
      "Ġcupcakes": 4237,
      "rants": 4238,
      "Ġtested": 4239,
      "wy": 4240,
      "inder": 4241,
      "Ġsum": 4242,
      "Ġheating": 4243,
      "airy": 4244,
      "Ġanchovy": 4245,
      "abobs": 4246,
      "pes": 4247,
      "ather": 4248,
      "ĠMixture": 4249,
      "ĠSnow": 4250,
      "ott": 4251,
      "Ġbreaking": 4252,
      "Ġrapid": 4253,
      "ĠMan": 4254,
      "thick": 4255,
      "ĠLemonade": 4256,
      "Ġlids": 4257,
      "Ġundrained": 4258,
      "Do": 4259,
      "nog": 4260,
      "ors": 4261,
      "ĠStove": 4262,
      "oid": 4263,
      "ĠPinch": 4264,
      "ĠLayered": 4265,
      "ĠGraham": 4266,
      "Ġfr": 4267,
      "assic": 4268,
      "Ġbottoms": 4269,
      "ĠPhiladelphia": 4270,
      "butter": 4271,
      "Ġty": 4272,
      "ĠPin": 4273,
      "ĠTur": 4274,
      "ĠGel": 4275,
      "Ġlobster": 4276,
      "ED": 4277,
      "alia": 4278,
      "orate": 4279,
      "Ġmixtures": 4280,
      "Ġroaster": 4281,
      "Ġjack": 4282,
      "Ġappear": 4283,
      "Ġpistachio": 4284,
      "Ġtotal": 4285,
      "heit": 4286,
      "Ġdecorate": 4287,
      "Ġpea": 4288,
      "ĠChile": 4289,
      "ĠWhiz": 4290,
      "ĠPaprika": 4291,
      "Ġcy": 4292,
      "Ġbark": 4293,
      "Ġpass": 4294,
      "Ġwor": 4295,
      "alm": 4296,
      "ĠAu": 4297,
      "ient": 4298,
      "Ġkielbasa": 4299,
      "Ġcaramelized": 4300,
      "In": 4301,
      "ĠClose": 4302,
      "ĠFettuc": 4303,
      "Ġke": 4304,
      "Ġlooks": 4305,
      "Ġrecipes": 4306,
      "Ġlima": 4307,
      "ĠJelly": 4308,
      "Ġteaspoonful": 4309,
      "Ġramekins": 4310,
      "ĠSurp": 4311,
      "abet": 4312,
      "cket": 4313,
      "Ġraisin": 4314,
      "Ġcurrants": 4315,
      "ĠCheez": 4316,
      "Ġblade": 4317,
      "Ġeasier": 4318,
      "cm": 4319,
      "Ġtips": 4320,
      "Ġinter": 4321,
      "Ġ36": 4322,
      "ĠSpecial": 4323,
      "ounce": 4324,
      "Ġlumpy": 4325,
      "Ġdumplings": 4326,
      "grain": 4327,
      "Ġwon": 4328,
      "ĠMolasses": 4329,
      "getarian": 4330,
      "ĠCOOL": 4331,
      "free": 4332,
      "Ġold": 4333,
      "Ġstack": 4334,
      "ĠTot": 4335,
      "ĠDry": 4336,
      "Ġris": 4337,
      "Ġliquids": 4338,
      "ĠThread": 4339,
      "lime": 4340,
      "ĠPic": 4341,
      "ĠBites": 4342,
      "raiche": 4343,
      "Ġrelease": 4344,
      "Ġkitchen": 4345,
      "Ġcurd": 4346,
      "ĠTwo": 4347,
      "Ġrotini": 4348,
      "Ġplacing": 4349,
      "ĠPuffs": 4350,
      "dough": 4351,
      "Ġcoles": 4352,
      "odium": 4353,
      "Ġhazelnuts": 4354,
      "orgonz": 4355,
      "Ġcoleslaw": 4356,
      "Ġbaste": 4357,
      "iluted": 4358,
      "Ġquite": 4359,
      "ĠSund": 4360,
      "orgonzola": 4361,
      "AL": 4362,
      "Fried": 4363,
      "ls": 4364,
      "mat": 4365,
      "ĠDiv": 4366,
      "Ġspl": 4367,
      "Ġtests": 4368,
      "Ġsummer": 4369,
      "IL": 4370,
      "Sp": 4371,
      "The": 4372,
      "ĠST": 4373,
      "Ġduck": 4374,
      "Ġwatercress": 4375,
      "ĠFashioned": 4376,
      "abi": 4377,
      "ĠGratin": 4378,
      "oux": 4379,
      "Ġmixes": 4380,
      "Ġyams": 4381,
      "Ġveg": 4382,
      "imply": 4383,
      "ĠClassic": 4384,
      "Ġhoisin": 4385,
      "Ġass": 4386,
      "ershey": 4387,
      "rawfish": 4388,
      "avory": 4389,
      "Ġblanc": 4390,
      "ĠTast": 4391,
      "idalia": 4392,
      "ĠLast": 4393,
      "ctin": 4394,
      "tty": 4395,
      "Ġ500": 4396,
      "Ġparty": 4397,
      "Ġbunch": 4398,
      "anese": 4399,
      "ĠCarb": 4400,
      "ori": 4401,
      "ards": 4402,
      "Ġincluding": 4403,
      "Ġcaster": 4404,
      "ĠHerbed": 4405,
      "Ġpurple": 4406,
      "ments": 4407,
      "Ġdistribute": 4408,
      "adine": 4409,
      "Ġflow": 4410,
      "Ġreached": 4411,
      "ified": 4412,
      "uns": 4413,
      "Ġprotein": 4414,
      "ĠYum": 4415,
      "Ġmarinara": 4416,
      "pepper": 4417,
      "Ġalternate": 4418,
      "ĠUnmold": 4419,
      "Ġtail": 4420,
      "ambled": 4421,
      "Ġnatural": 4422,
      "Ġ70": 4423,
      "Ġtrays": 4424,
      "Ġrubber": 4425,
      "ĠMince": 4426,
      "approximately": 4427,
      "ĠGuacamole": 4428,
      "Ġdifferent": 4429,
      "Ġ0": 4430,
      "Ġmicrowav": 4431,
      "Ġhominy": 4432,
      "ĠIs": 4433,
      "Ġtable": 4434,
      "ĠTenderloin": 4435,
      "ĠSavory": 4436,
      "illas": 4437,
      "Ġ23": 4438,
      "Ġspears": 4439,
      "Ġprepar": 4440,
      "Ġthicker": 4441,
      "ĠBrittle": 4442,
      "You": 4443,
      "icama": 4444,
      "ĠCumin": 4445,
      "ĠCaesar": 4446,
      "mouth": 4447,
      "Ġgrnd": 4448,
      "ĠInvert": 4449,
      "ĠThree": 4450,
      "ĠFrom": 4451,
      "Ġdiscarding": 4452,
      "Ġcm": 4453,
      "Ġwont": 4454,
      "ĠRot": 4455,
      "Ġgrilling": 4456,
      "salt": 4457,
      "Ġdiagonally": 4458,
      "ogh": 4459,
      "Ġwrappers": 4460,
      "Ġplums": 4461,
      "Ġkiwi": 4462,
      "ĠFirst": 4463,
      "don": 4464,
      "Ġsake": 4465,
      "Ġcryst": 4466,
      "ilaf": 4467,
      "Ġpale": 4468,
      "ĠLettuce": 4469,
      "Ġgloss": 4470,
      "Ġrectangular": 4471,
      "ĠSoft": 4472,
      "ĠFritos": 4473,
      "AKE": 4474,
      "ĠBrie": 4475,
      "Ġ22": 4476,
      "Ġpancetta": 4477,
      "ĠHershey": 4478,
      "ĠEver": 4479,
      "ĠYummy": 4480,
      "Ġresul": 4481,
      "ĠCupcakes": 4482,
      "Ġsaffron": 4483,
      "oud": 4484,
      "Ġpectin": 4485,
      "Ġjell": 4486,
      "ĠChampagne": 4487,
      "ĠEvenly": 4488,
      "isses": 4489,
      "Ġbrine": 4490,
      "ĠPastry": 4491,
      "ĠQuickly": 4492,
      "Ġpimientos": 4493,
      "iber": 4494,
      "Ġimp": 4495,
      "ĠSouffle": 4496,
      "Ġgas": 4497,
      "Ġchorizo": 4498,
      "stir": 4499,
      "ĠNor": 4500,
      "arfait": 4501,
      "fle": 4502,
      "Ġsoon": 4503,
      "Ġnoodle": 4504,
      "ĠLa": 4505,
      "apanese": 4506,
      "arden": 4507,
      "ĠBroth": 4508,
      "Ġsprinkling": 4509,
      "Ġavoid": 4510,
      "ĠLentil": 4511,
      "Ġprawns": 4512,
      "any": 4513,
      "ĠBuffalo": 4514,
      "Ġflo": 4515,
      "ĠSauteed": 4516,
      "ahren": 4517,
      "Ġminiature": 4518,
      "ĠExtra": 4519,
      "ĠSurprise": 4520,
      "IR": 4521,
      "nadine": 4522,
      "Ġmir": 4523,
      "Ġfall": 4524,
      "ĠPistach": 4525,
      "ĠThoroughly": 4526,
      "Ġloosen": 4527,
      "Ġbasket": 4528,
      "oghurt": 4529,
      "ahrenheit": 4530,
      "Makes": 4531,
      "Ġcools": 4532,
      "Ġsteamer": 4533,
      "Ġtrim": 4534,
      "ĠSkim": 4535,
      "This": 4536,
      "semble": 4537,
      "Cheese": 4538,
      "gur": 4539,
      "Ġcour": 4540,
      "Ġtry": 4541,
      "Ġfast": 4542,
      "ggest": 4543,
      "Ġ48": 4544,
      "ĠOats": 4545,
      "ĠKeeps": 4546,
      "Ġdirectly": 4547,
      "Ġpopped": 4548,
      "Ġburner": 4549,
      "Ġsolids": 4550,
      "Ġmascarpone": 4551,
      "Ġten": 4552,
      "Ġsuch": 4553,
      "aint": 4554,
      "ĠNot": 4555,
      "Ġhealthy": 4556,
      "apia": 4557,
      "Ġcongeal": 4558,
      "Ġformed": 4559,
      "Ġmein": 4560,
      "oleslaw": 4561,
      "Ġburning": 4562,
      "Ġesc": 4563,
      "Ġburger": 4564,
      "Ġpol": 4565,
      "ingles": 4566,
      "asts": 4567,
      "ado": 4568,
      "Ġflank": 4569,
      "aps": 4570,
      "Ġthroughout": 4571,
      "Ġpatter": 4572,
      "ĠCube": 4573,
      "ĠColeslaw": 4574,
      "box": 4575,
      "Ġthirds": 4576,
      "Ġmal": 4577,
      "att": 4578,
      "Ġfraiche": 4579,
      "ĠBaby": 4580,
      "ĠMixed": 4581,
      "ĠHo": 4582,
      "loppy": 4583,
      "Ġlayering": 4584,
      "Ġsealed": 4585,
      "Ġtiny": 4586,
      "Ġsnack": 4587,
      "ĠSouthw": 4588,
      "abetic": 4589,
      "'ll": 4590,
      "sides": 4591,
      "Ġcoun": 4592,
      "Ġpri": 4593,
      "ĠInsert": 4594,
      "ĠEx": 4595,
      "ĠTofu": 4596,
      "velop": 4597,
      "Cook": 4598,
      "cini": 4599,
      "Ġtakes": 4600,
      "Ġoat": 4601,
      "ĠRefrigerator": 4602,
      "eyed": 4603,
      "irds": 4604,
      "ritional": 4605,
      "Ġdutch": 4606,
      "acha": 4607,
      "ains": 4608,
      "ĠSauerkraut": 4609,
      "Ġouter": 4610,
      "Ġprovolone": 4611,
      "ĠBreast": 4612,
      "Ġpattern": 4613,
      "Ġfe": 4614,
      "ĠTeriyaki": 4615,
      "Ġheatproof": 4616,
      "Ġroux": 4617,
      "Ġwhat": 4618,
      "ĠLOW": 4619,
      "ĠMeatloaf": 4620,
      "Ġincrease": 4621,
      "etizers": 4622,
      "Ġnearly": 4623,
      "Ġtasty": 4624,
      "orted": 4625,
      "Ġlady": 4626,
      "Ġhollow": 4627,
      "Ġoverla": 4628,
      "ĠGarden": 4629,
      "core": 4630,
      "Ġcenters": 4631,
      "Ġmany": 4632,
      "Ġmonth": 4633,
      "Ġfettuccine": 4634,
      "Ġparsnips": 4635,
      "rum": 4636,
      "Ġbundt": 4637,
      "Ġwhe": 4638,
      "ancy": 4639,
      "ĠBourbon": 4640,
      "terol": 4641,
      "loc": 4642,
      "ĠJapanese": 4643,
      "ĠScald": 4644,
      "olesterol": 4645,
      "ĠOreos": 4646,
      "ĠPrick": 4647,
      "nier": 4648,
      "ware": 4649,
      "Ġfair": 4650,
      "ĠTang": 4651,
      "ĠTacos": 4652,
      "ĠThyme": 4653,
      "ĠSeeds": 4654,
      "ĠGelatin": 4655,
      "Ġoverlapping": 4656,
      "70": 4657,
      "met": 4658,
      "onder": 4659,
      "icelli": 4660,
      "Ġsoaked": 4661,
      "uls": 4662,
      "Ġupside": 4663,
      "ĠBrownie": 4664,
      "ĠUps": 4665,
      "ĠChipotle": 4666,
      "Ġsprings": 4667,
      "ties": 4668,
      "Ġ).": 4669,
      "estern": 4670,
      "ĠSloppy": 4671,
      "ĠPort": 4672,
      "Ġem": 4673,
      "Ġspareribs": 4674,
      "until": 4675,
      "ental": 4676,
      "ĠCreamed": 4677,
      "ossom": 4678,
      "Ġmicrowaveable": 4679,
      "ternal": 4680,
      "ields": 4681,
      "asagne": 4682,
      "ĠGoat": 4683,
      "ĠThinly": 4684,
      "Ġserrano": 4685,
      "duty": 4686,
      "Ġpush": 4687,
      "ĠCas": 4688,
      "Ġsho": 4689,
      "iforn": 4690,
      "Ġpretty": 4691,
      "ĠToffee": 4692,
      "ĠGreens": 4693,
      "Ġhens": 4694,
      "ĠDeviled": 4695,
      "ws": 4696,
      "Ġinsert": 4697,
      "rost": 4698,
      "ĠTots": 4699,
      "Ġgrenadine": 4700,
      "acaroon": 4701,
      "Ġcounter": 4702,
      "For": 4703,
      "oz": 4704,
      "vals": 4705,
      "ative": 4706,
      "ico": 4707,
      "ĠSingles": 4708,
      "Ġlimes": 4709,
      "Ġmine": 4710,
      "ĠImp": 4711,
      "Ġrich": 4712,
      "Ġroughly": 4713,
      "Ġpops": 4714,
      "Ġflowerets": 4715,
      "Ġblanched": 4716,
      "bits": 4717,
      "acts": 4718,
      "Ġlift": 4719,
      "ĠHar": 4720,
      "ĠSwirl": 4721,
      "Ġtriple": 4722,
      "esadillas": 4723,
      "Ġfairly": 4724,
      "ifornia": 4725,
      "igg": 4726,
      "Ġtrout": 4727,
      "ĠTest": 4728,
      "ĠFahrenheit": 4729,
      "urst": 4730,
      "aret": 4731,
      "ively": 4732,
      "Ġforming": 4733,
      "Ġallowing": 4734,
      "ĠWaffles": 4735,
      "medium": 4736,
      "Ġmill": 4737,
      "Ġmushy": 4738,
      "ĠSub": 4739,
      "Ġcoll": 4740,
      "Ġdredge": 4741,
      "ĠBon": 4742,
      "idbits": 4743,
      "ĠKet": 4744,
      "Ġseedless": 4745,
      "Ġmangoes": 4746,
      "Ġplaced": 4747,
      "\".": 4748,
      "inter": 4749,
      "Ġomelet": 4750,
      "utee": 4751,
      "ĠIi": 4752,
      "ĠFil": 4753,
      "Ġflavorings": 4754,
      "Ġvermouth": 4755,
      "brown": 4756,
      "ĠOyster": 4757,
      "ĠPretzel": 4758,
      "gn": 4759,
      "over": 4760,
      "port": 4761,
      "ues": 4762,
      "edish": 4763,
      "Ġingredient": 4764,
      "arsely": 4765,
      "Ġleek": 4766,
      "Ġmat": 4767,
      "orch": 4768,
      "Ġspicy": 4769,
      "Ġseven": 4770,
      "uddle": 4771,
      "Ġstuffed": 4772,
      "Ġstewed": 4773,
      "ĠWorking": 4774,
      "ĠGranola": 4775,
      "Serves": 4776,
      "Ġcountry": 4777,
      "Ġtie": 4778,
      "garita": 4779,
      "Ġapprox": 4780,
      "ĠQuinoa": 4781,
      "Ġdebone": 4782,
      "ĠFinish": 4783,
      "Ġassorted": 4784,
      ":.": 4785,
      "hol": 4786,
      "ottom": 4787,
      "Ġstar": 4788,
      "Ġrequ": 4789,
      "ĠChun": 4790,
      "ĠInto": 4791,
      "Ġpackages": 4792,
      "Ġfollowed": 4793,
      "ern": 4794,
      "Ġmace": 4795,
      "this": 4796,
      "immon": 4797,
      "ĠChow": 4798,
      "crisp": 4799,
      "ĠOlives": 4800,
      "Ġsubstituted": 4801,
      "Ġomitting": 4802,
      "ria": 4803,
      "ĠVal": 4804,
      "ropical": 4805,
      "Ġextracts": 4806,
      "ĠBananas": 4807,
      "ĠBlackberry": 4808,
      "ibut": 4809,
      "ommend": 4810,
      "ipping": 4811,
      "ĠBy": 4812,
      "ĠBbq": 4813,
      "Ġstor": 4814,
      "Ġvenison": 4815,
      "ĠSpring": 4816,
      "Ġtear": 4817,
      "ersion": 4818,
      "Ġliver": 4819,
      "active": 4820,
      "Ġstockpot": 4821,
      "ĠSteaks": 4822,
      "ĠRais": 4823,
      "ĠZesty": 4824,
      "Ġcycle": 4825,
      "ĠPistachio": 4826,
      "ius": 4827,
      "Ġcuts": 4828,
      "Ġfluff": 4829,
      "ĠRamen": 4830,
      "Ġalum": 4831,
      "Ġ170": 4832,
      "ĠHalve": 4833,
      "Ġtype": 4834,
      "Ġ/": 4835,
      "icient": 4836,
      "ĠSP": 4837,
      "Ġcod": 4838,
      "Ġlot": 4839,
      "Ġstalk": 4840,
      "ĠPatties": 4841,
      "Ġpierced": 4842,
      "Ġperson": 4843,
      "Ġintervals": 4844,
      "Ġemuls": 4845,
      "Ġmiso": 4846,
      "hee": 4847,
      "verage": 4848,
      "ĠMM": 4849,
      "ĠHummus": 4850,
      "Ġpapaya": 4851,
      "Ġcannellini": 4852,
      "ĠCalifornia": 4853,
      "ĠKetchup": 4854,
      "isters": 4855,
      "uched": 4856,
      "ĠTip": 4857,
      "ĠFollow": 4858,
      "ĠSprouts": 4859,
      "efrost": 4860,
      "ĠOmelet": 4861,
      "oses": 4862,
      "ĠButternut": 4863,
      "ĠFreezes": 4864,
      "plants": 4865,
      "Ġbreakfast": 4866,
      "ĠPerfect": 4867,
      "ĠTorte": 4868,
      "ible": 4869,
      "water": 4870,
      "Ġmight": 4871,
      "ution": 4872,
      "Ġinternal": 4873,
      "Ġtoaster": 4874,
      "Ġtouched": 4875,
      "ĠMandarin": 4876,
      "Ġgrinder": 4877,
      "ĠOregano": 4878,
      "Ġ90": 4879,
      "Ġhoriz": 4880,
      "Ġrectangles": 4881,
      "raised": 4882,
      "Bake": 4883,
      "fresh": 4884,
      "atill": 4885,
      "Ġsaltines": 4886,
      "Ġhalved": 4887,
      "Ġplenty": 4888,
      "Ġpouring": 4889,
      "Ġagave": 4890,
      "cooking": 4891,
      "Ġmugs": 4892,
      "Ġhorizont": 4893,
      "boil": 4894,
      "whe": 4895,
      "Ġtong": 4896,
      "Ġpoke": 4897,
      "anger": 4898,
      "icle": 4899,
      "ĠAN": 4900,
      "iracha": 4901,
      "ĠRun": 4902,
      "ĠTime": 4903,
      "Ġnacho": 4904,
      "ienne": 4905,
      "ĠIngredien": 4906,
      "coal": 4907,
      "cohol": 4908,
      "ĠKale": 4909,
      "Ġproof": 4910,
      "Ġwait": 4911,
      "Ġrunny": 4912,
      "alorie": 4913,
      "ETA": 4914,
      "165": 4915,
      "Ġcentre": 4916,
      "uri": 4917,
      "Ġ;": 4918,
      "rapped": 4919,
      "ĠLee": 4920,
      "ĠYeast": 4921,
      "Ġbutton": 4922,
      "Ġcrumbles": 4923,
      "ĠGingerbread": 4924,
      "ĠMarnier": 4925,
      "ĠAlmonds": 4926,
      "Ġsplash": 4927,
      "man": 4928,
      "Ġtidbits": 4929,
      "Ġlots": 4930,
      "Ġladle": 4931,
      "Ġsuff": 4932,
      "eaten": 4933,
      "ĠVEL": 4934,
      "ĠPeaches": 4935,
      "Ġsection": 4936,
      "VEETA": 4937,
      "Ġkept": 4938,
      "Ġpolenta": 4939,
      "ĠVELVEETA": 4940,
      "rew": 4941,
      "utes": 4942,
      "Ġfries": 4943,
      "Ġflute": 4944,
      "ĠDried": 4945,
      "ĠChutney": 4946,
      "ĠCarn": 4947,
      "ĠSwedish": 4948,
      "Ġmasala": 4949,
      "aise": 4950,
      "Ġtoffee": 4951,
      "ĠPilaf": 4952,
      "cones": 4953,
      "ambal": 4954,
      "ĠAppetizer": 4955,
      "Ġholds": 4956,
      "Ġinvert": 4957,
      "ĠBag": 4958,
      "Ġuncover": 4959,
      "Ġempty": 4960,
      "ĠMedium": 4961,
      "Ġjicama": 4962,
      "Ġyoghurt": 4963,
      "ĠGrap": 4964,
      "ĠReheat": 4965,
      "ĠBeet": 4966,
      "Ġelse": 4967,
      "Ġbrie": 4968,
      "Ġwonton": 4969,
      "Add": 4970,
      "micelli": 4971,
      "Ġmac": 4972,
      "ĠMary": 4973,
      "Ġeggplants": 4974,
      "ieners": 4975,
      "avender": 4976,
      "Ġproport": 4977,
      "ĠScatter": 4978,
      "ĠWatermelon": 4979,
      "Ġadv": 4980,
      "Ġflowers": 4981,
      "14": 4982,
      "AN": 4983,
      "riracha": 4984,
      "ĠPier": 4985,
      "etimes": 4986,
      "thern": 4987,
      "ĠScrub": 4988,
      "aretto": 4989,
      "ĠPies": 4990,
      "Ġstra": 4991,
      "ston": 4992,
      "Ġsyrupy": 4993,
      "ĠKitchen": 4994,
      "Ġspringform": 4995,
      "Ġwrapped": 4996,
      "Ġmicrowavable": 4997,
      "Microwave": 4998,
      "dew": 4999,
      "filled": 5000,
      "ret": 5001,
      "Ġberry": 5002,
      "Ġmort": 5003,
      "olog": 5004,
      "Ġvari": 5005,
      "ĠEmpty": 5006,
      "peel": 5007,
      "ĠNutmeg": 5008,
      "Ġpearl": 5009,
      "Ġdropped": 5010,
      "Ġvermicelli": 5011,
      "Ġbulgur": 5012,
      "onderful": 5013,
      "OY": 5014,
      "fingers": 5015,
      "ĠChess": 5016,
      "Ġmark": 5017,
      "ĠMocha": 5018,
      "ĠEnchilada": 5019,
      "amboo": 5020,
      "Ġfitted": 5021,
      "Ġrecommend": 5022,
      "Ġtastes": 5023,
      "Ġsufficient": 5024,
      "160": 5025,
      "val": 5026,
      "Ġsorbet": 5027,
      "ito": 5028,
      "orseradish": 5029,
      "ĠPink": 5030,
      "Ġlink": 5031,
      "ĠMag": 5032,
      "Ġflavour": 5033,
      "aters": 5034,
      "Ġdesire": 5035,
      "ĠMoisten": 5036,
      "Ġchard": 5037,
      "ĠDirt": 5038,
      "Ġthrow": 5039,
      "Ġseg": 5040,
      "ĠWhipped": 5041,
      "Ġstiffly": 5042,
      "ĠSnick": 5043,
      "Ġcharcoal": 5044,
      "ottage": 5045,
      "ĠUpside": 5046,
      "ĠCashew": 5047,
      "ĠRaisins": 5048,
      "Ġatop": 5049,
      "Ġwatch": 5050,
      "Ġgold": 5051,
      "ĠRuss": 5052,
      "ĠProtein": 5053,
      "Ġcanning": 5054,
      "ĠFritters": 5055,
      "ĠPral": 5056,
      "uyere": 5057,
      "ĠTreats": 5058,
      "Gl": 5059,
      "Pe": 5060,
      "Ups": 5061,
      "cell": 5062,
      "ux": 5063,
      "Ġmust": 5064,
      "Ġflours": 5065,
      "ĠVidalia": 5066,
      "Ġscald": 5067,
      "Ġpretzel": 5068,
      "nch": 5069,
      "ugh": 5070,
      "Ġess": 5071,
      "Ġpar": 5072,
      "atoni": 5073,
      "anks": 5074,
      "ĠPres": 5075,
      "ĠMeringue": 5076,
      "Ġstay": 5077,
      "ĠSeven": 5078,
      "estle": 5079,
      "Ġrib": 5080,
      "Ġtester": 5081,
      "ĠLiqu": 5082,
      "Ġcavity": 5083,
      "Ġrapidly": 5084,
      "ured": 5085,
      "Ġstr": 5086,
      "ĠOat": 5087,
      "ĠVari": 5088,
      "ĠPlum": 5089,
      "Ġmirin": 5090,
      "ĠCarnation": 5091,
      "round": 5092,
      "atively": 5093,
      "leaf": 5094,
      "itake": 5095,
      "ĠPor": 5096,
      "ĠPass": 5097,
      "ĠStirring": 5098,
      "ĠShredded": 5099,
      "hetta": 5100,
      "oulder": 5101,
      "ickpea": 5102,
      "ĠMonkey": 5103,
      "ĠHearty": 5104,
      "Ġcontinuously": 5105,
      "ĠCottage": 5106,
      "ĠPart": 5107,
      "Ġchia": 5108,
      "Ġhus": 5109,
      "Ġchickens": 5110,
      "Ġglazed": 5111,
      "ĠJoes": 5112,
      "ĠOriental": 5113,
      "hn": 5114,
      "ock": 5115,
      "oey": 5116,
      "ĠPri": 5117,
      "ĠPops": 5118,
      "ĠBet": 5119,
      "Ġeating": 5120,
      "Ġfilets": 5121,
      "Ġpreference": 5122,
      "ĠHea": 5123,
      "ĠFinally": 5124,
      "urritos": 5125,
      "ĠTangy": 5126,
      "JOY": 5127,
      "hod": 5128,
      "ob": 5129,
      "ests": 5130,
      "Ġtough": 5131,
      "Ġforks": 5132,
      "ĠRib": 5133,
      "entation": 5134,
      "Ġprod": 5135,
      "Ġlove": 5136,
      "Ġstop": 5137,
      "ĠArugula": 5138,
      "Ġfrench": 5139,
      "ĠBroiled": 5140,
      "ĠIcebox": 5141,
      "Ġregisters": 5142,
      "lt": 5143,
      "Ġite": 5144,
      "ENJOY": 5145,
      "Ġbamboo": 5146,
      "Ġfun": 5147,
      "ĠMrs": 5148,
      "illy": 5149,
      "Ġspace": 5150,
      "Ġchoy": 5151,
      "ava": 5152,
      "Ġlivers": 5153,
      "Ġprior": 5154,
      "Ġhorizontally": 5155,
      "cellent": 5156,
      "Ġpk": 5157,
      "Ġwashed": 5158,
      "Ġfind": 5159,
      "Ġrav": 5160,
      "ĠMediter": 5161,
      "mati": 5162,
      "Ġresults": 5163,
      "Ġsil": 5164,
      "Ġfamily": 5165,
      "ĠBraised": 5166,
      "eath": 5167,
      "ĠFran": 5168,
      "ĠStack": 5169,
      "ĠKo": 5170,
      "Ġloose": 5171,
      "elsius": 5172,
      "ranean": 5173,
      "ĠOvernight": 5174,
      "Ġadvance": 5175,
      "Ġhair": 5176,
      "ĠCoarsely": 5177,
      "usters": 5178,
      "thier": 5179,
      "ĠGener": 5180,
      "Ġcorners": 5181,
      "ĠVelvet": 5182,
      "Ġcutters": 5183,
      "Ġcharred": 5184,
      "Ġpreparing": 5185,
      "ĠENJOY": 5186,
      "ĠCouscous": 5187,
      "ĠSlic": 5188,
      "ĠPoke": 5189,
      "ĠRich": 5190,
      "ĠTropical": 5191,
      "ĠWipe": 5192,
      "qual": 5193,
      "ĠYour": 5194,
      "Ġens": 5195,
      "ĠChewy": 5196,
      "Ġfondue": 5197,
      "Ġequally": 5198,
      "uschetta": 5199,
      "gnac": 5200,
      "Ġtongs": 5201,
      "peeled": 5202,
      "eso": 5203,
      "icles": 5204,
      "ically": 5205,
      "rops": 5206,
      "Ġghee": 5207,
      "ĠSherry": 5208,
      "ĠPepperoni": 5209,
      "Ġwasabi": 5210,
      "ĠServings": 5211,
      "Ġbunches": 5212,
      "ĠMediterranean": 5213,
      "Le": 5214,
      "fit": 5215,
      "tata": 5216,
      "wrap": 5217,
      "aky": 5218,
      "Ġgent": 5219,
      "Ġjul": 5220,
      "ĠHorseradish": 5221,
      "rowd": 5222,
      "Ġrare": 5223,
      "izzas": 5224,
      "ĠDiabetic": 5225,
      "grass": 5226,
      "Ġsmoking": 5227,
      "Ġglossy": 5228,
      "finger": 5229,
      "gy": 5230,
      "yes": 5231,
      "Ġcrawfish": 5232,
      "Ġpalm": 5233,
      "Ġwing": 5234,
      "Ġcob": 5235,
      "Ġramen": 5236,
      "ĠHi": 5237,
      "ĠHouse": 5238,
      "Ġsnap": 5239,
      "Ġsauces": 5240,
      "Ġmortar": 5241,
      "ĠRussian": 5242,
      "11": 5243,
      "EAT": 5244,
      "mg": 5245,
      "Ġsilk": 5246,
      "ana": 5247,
      "ĠPu": 5248,
      "umb": 5249,
      "Ġrocks": 5250,
      "uffles": 5251,
      "osition": 5252,
      "Ġfrank": 5253,
      "ĠPita": 5254,
      "raf": 5255,
      "raut": 5256,
      "ĠFarm": 5257,
      "achos": 5258,
      "Ġquiche": 5259,
      "ĠFlavor": 5260,
      "Ġkeeping": 5261,
      "ĠPancake": 5262,
      "ĠOriginal": 5263,
      "Ġsegments": 5264,
      "kon": 5265,
      "ĠCayenne": 5266,
      "ĠCrescent": 5267,
      "Ġgum": 5268,
      "Ġsaving": 5269,
      "Ġvary": 5270,
      "asted": 5271,
      "ĠWaf": 5272,
      "Ġcorner": 5273,
      "Ġslit": 5274,
      "ĠVer": 5275,
      "ĠSelect": 5276,
      "Ġbagel": 5277,
      "Ġwaffles": 5278,
      "ĠTriple": 5279,
      "ĠCandied": 5280,
      "Low": 5281,
      "cross": 5282,
      "go": 5283,
      "lud": 5284,
      "pre": 5285,
      "Ġdate": 5286,
      "ĠTie": 5287,
      "imum": 5288,
      "iping": 5289,
      "Ġshoulder": 5290,
      "ĠLef": 5291,
      "ĠHer": 5292,
      "Ġkeeps": 5293,
      "ĠKid": 5294,
      "Ġcomplete": 5295,
      "Ġcolour": 5296,
      "pending": 5297,
      "Ġendive": 5298,
      "Ġinclud": 5299,
      "Ġwrapper": 5300,
      "ĠJohn": 5301,
      "Ġgentle": 5302,
      ",.": 5303,
      "ES": 5304,
      "Ġmatch": 5305,
      "Ġpor": 5306,
      "alam": 5307,
      "Ġcoats": 5308,
      "ĠBurger": 5309,
      "Ġsuggest": 5310,
      "Ġlogs": 5311,
      "Ġdrip": 5312,
      "ĠBoiled": 5313,
      "Ġdoor": 5314,
      "ossible": 5315,
      "ĠNutella": 5316,
      "Ġtriangle": 5317,
      "acaroons": 5318,
      "uxe": 5319,
      "AS": 5320,
      "To": 5321,
      "time": 5322,
      "Ġint": 5323,
      "ĠDrink": 5324,
      "Ġshot": 5325,
      "Ġalways": 5326,
      "Ġliquor": 5327,
      "Ġlimeade": 5328,
      "ĠGluten": 5329,
      "ĠPowdered": 5330,
      "Ġincorporate": 5331,
      "Fashioned": 5332,
      "Ġim": 5333,
      "reactive": 5334,
      "Ġbel": 5335,
      "enn": 5336,
      "gets": 5337,
      "Ġstone": 5338,
      "ĠTry": 5339,
      "Ġhighball": 5340,
      "iving": 5341,
      "ĠCrumb": 5342,
      "ĠBarley": 5343,
      "ĠSecure": 5344,
      "may": 5345,
      "zing": 5346,
      "INE": 5347,
      "aran": 5348,
      "ister": 5349,
      "ache": 5350,
      "ĠMart": 5351,
      "adian": 5352,
      "Ġovermix": 5353,
      "berally": 5354,
      "ĠOkra": 5355,
      "ago": 5356,
      "uggets": 5357,
      "Ġevapor": 5358,
      "Ġprick": 5359,
      "agg": 5360,
      "fur": 5361,
      "Ġmild": 5362,
      "leu": 5363,
      "ĠSkew": 5364,
      "garlic": 5365,
      "ĠMas": 5366,
      "Ġlegs": 5367,
      "ĠFries": 5368,
      "ĠCooked": 5369,
      "ĠHeath": 5370,
      "Ġputting": 5371,
      "angria": 5372,
      "ĠQuarter": 5373,
      "Ġscoops": 5374,
      "ĠSteamed": 5375,
      "Ġravioli": 5376,
      "ba": 5377,
      "dried": 5378,
      "egg": 5379,
      "ĠCelsius": 5380,
      "Ġunpeeled": 5381,
      "raz": 5382,
      "allow": 5383,
      "ĠOptional": 5384,
      "ĠVodka": 5385,
      "ĠBeets": 5386,
      "Ġcroiss": 5387,
      "ĠVegetarian": 5388,
      "ailable": 5389,
      "Ġml": 5390,
      "Ġmot": 5391,
      "Ġones": 5392,
      "adam": 5393,
      "ĠFennel": 5394,
      "abs": 5395,
      "Ġscorch": 5396,
      "ĠProsciutto": 5397,
      "Ġpreferred": 5398,
      "ĠTortellini": 5399,
      "ĠShells": 5400,
      "isps": 5401,
      "Ġjumbo": 5402,
      "Ġspir": 5403,
      "Ġtomatill": 5404,
      "stitute": 5405,
      "ĠTablespoon": 5406,
      "Ġclosed": 5407,
      "Ġlinks": 5408,
      "OR": 5409,
      "Orange": 5410,
      "Ġsol": 5411,
      "atel": 5412,
      "rare": 5413,
      "ĠTam": 5414,
      "Ġappetizer": 5415,
      "ĠKabobs": 5416,
      "ĠWraps": 5417,
      "ĠToasted": 5418,
      "Ġworking": 5419,
      "Ġshaved": 5420,
      "Ġevaporates": 5421,
      "adamia": 5422,
      "DD": 5423,
      "It": 5424,
      "iitake": 5425,
      "zn": 5426,
      "ĠCalories": 5427,
      "ĠPush": 5428,
      "ĠParm": 5429,
      "Ġ19": 5430,
      "Ġsuit": 5431,
      "ready": 5432,
      "Ġyields": 5433,
      "ĠReady": 5434,
      "outh": 5435,
      "Ġremains": 5436,
      "Ġbreads": 5437,
      "Ġplant": 5438,
      "Ġchillies": 5439,
      "Ġrabb": 5440,
      "Ġsoymilk": 5441,
      "ĠUncle": 5442,
      "ĠIndian": 5443,
      "ĠIsland": 5444,
      "ouda": 5445,
      "Ġproportion": 5446,
      "Al": 5447,
      "MB": 5448,
      "rite": 5449,
      "onge": 5450,
      "Ġcheesecake": 5451,
      "used": 5452,
      "ĠTarts": 5453,
      "llo": 5454,
      "iesta": 5455,
      "iano": 5456,
      "ĠMeal": 5457,
      "ĠZip": 5458,
      "icotti": 5459,
      "Ġsteaming": 5460,
      "ingersn": 5461,
      "ĠTasty": 5462,
      "Ġstrong": 5463,
      "een": 5464,
      "ince": 5465,
      "Ġparfait": 5466,
      "atfish": 5467,
      "amame": 5468,
      "ĠMiss": 5469,
      "Ġhoneydew": 5470,
      "Ġscatter": 5471,
      "ĠSlush": 5472,
      "perate": 5473,
      "ĠImpossible": 5474,
      "Ġessence": 5475,
      "Down": 5476,
      "ect": 5477,
      "Ġach": 5478,
      "Ġtre": 5479,
      "ĠSA": 5480,
      "ĠSorbet": 5481,
      "ĠCore": 5482,
      "Ġori": 5483,
      "ĠFour": 5484,
      "ĠShould": 5485,
      "ĠUp": 5486,
      "ĠCorned": 5487,
      "Ġpocket": 5488,
      "Ġbright": 5489,
      "hyd": 5490,
      "Ġcombination": 5491,
      "Ġattach": 5492,
      "ĠFettuccine": 5493,
      "dor": 5494,
      "Ġpiping": 5495,
      "Ġwieners": 5496,
      "Ġchow": 5497,
      "Ġvis": 5498,
      "ĠIced": 5499,
      "ĠFamily": 5500,
      "ĠKing": 5501,
      "Ġturnips": 5502,
      "arbe": 5503,
      "ĠMedley": 5504,
      "ION": 5505,
      "ner": 5506,
      "uv": 5507,
      "chio": 5508,
      "Ġthinner": 5509,
      "ĠGorgonzola": 5510,
      "ĠEqual": 5511,
      "Ġthickest": 5512,
      "Ġstopping": 5513,
      "Ġdrizz": 5514,
      "ĠScotch": 5515,
      "azy": 5516,
      "ĠTwink": 5517,
      "ĠShortbread": 5518,
      "Ġfrzn": 5519,
      "Ġtails": 5520,
      "Ġfloat": 5521,
      "ĠValley": 5522,
      "ĠCereal": 5523,
      "ĠMI": 5524,
      "iment": 5525,
      "ĠHalf": 5526,
      "ĠSauc": 5527,
      "ĠGrits": 5528,
      "Ġsteady": 5529,
      "ĠShall": 5530,
      "Ġrig": 5531,
      "ĠSupper": 5532,
      "ĠDeluxe": 5533,
      "Ġ145": 5534,
      "Ġpreferably": 5535,
      "Ġseems": 5536,
      "Ġundiluted": 5537,
      "ĠSticks": 5538,
      "ĠGenerously": 5539,
      "OO": 5540,
      "rel": 5541,
      "Ġour": 5542,
      "thirds": 5543,
      "ĠPeanuts": 5544,
      "ĠVenison": 5545,
      "ĠBruschetta": 5546,
      "ĠCrockpot": 5547,
      "Ġshavings": 5548,
      "Ġladyfingers": 5549,
      "Ġwheel": 5550,
      "ĠIngredients": 5551,
      "Ġproportionately": 5552,
      "375": 5553,
      "RA": 5554,
      "Ġinsides": 5555,
      "ĠBuns": 5556,
      "tob": 5557,
      "ĠFast": 5558,
      "Ġsear": 5559,
      "Ġlowest": 5560,
      "ckets": 5561,
      "ĠRock": 5562,
      "ĠBrunch": 5563,
      "ĠLeftover": 5564,
      "Ġcart": 5565,
      "Ġopt": 5566,
      "ĠPenne": 5567,
      "Ġdec": 5568,
      "Ġlimp": 5569,
      "ĠMel": 5570,
      "adic": 5571,
      "Ġbeverage": 5572,
      "Ġreplace": 5573,
      "Ġcriss": 5574,
      "Ġchunk": 5575,
      "Ġbittersweet": 5576,
      "hydr": 5577,
      "Ġmounds": 5578,
      "fitting": 5579,
      "'ve": 5580,
      "Or": 5581,
      "ais": 5582,
      "fashioned": 5583,
      "Ġdistrib": 5584,
      "Ġoils": 5585,
      "ĠFlo": 5586,
      "ĠFail": 5587,
      "abel": 5588,
      "Ġ475": 5589,
      "Ġjug": 5590,
      "Ġmarinated": 5591,
      "Ġperfect": 5592,
      "ĠTrifle": 5593,
      "ĠCaramelized": 5594,
      "Ġdiagonal": 5595,
      "ĠDogs": 5596,
      "Ġcourse": 5597,
      "wheels": 5598,
      "Ġfrankfur": 5599,
      "raft": 5600,
      "ĠMartini": 5601,
      "adicchio": 5602,
      "erie": 5603,
      "Ġtaking": 5604,
      "Ġsaltine": 5605,
      "ĠMade": 5606,
      "Ġrom": 5607,
      "uffed": 5608,
      "Ġmelting": 5609,
      "Ġsets": 5610,
      "Ġblackberry": 5611,
      "ĠVeal": 5612,
      "Ġturned": 5613,
      "ĠEggnog": 5614,
      "ĠScallops": 5615,
      "LY": 5616,
      "bottom": 5617,
      "ned": 5618,
      "ĠSkin": 5619,
      "Ġdrum": 5620,
      "ĠCole": 5621,
      "ĠRound": 5622,
      "ĠRag": 5623,
      "Ġpanko": 5624,
      "seed": 5625,
      "Ġfreezing": 5626,
      "ĠBrisket": 5627,
      "Ġpressed": 5628,
      "ĠProvolone": 5629,
      "ĠMarsala": 5630,
      "ĠFondue": 5631,
      "Ġitems": 5632,
      ".\"": 5633,
      "AD": 5634,
      "noc": 5635,
      "ond": 5636,
      "ura": 5637,
      "yn": 5638,
      "iness": 5639,
      "Ġinf": 5640,
      "ĠSimply": 5641,
      "ĠBen": 5642,
      "Ġear": 5643,
      "Ġpet": 5644,
      "ickory": 5645,
      "ĠDistribute": 5646,
      "ĠFiesta": 5647,
      "ought": 5648,
      "ific": 5649,
      "ĠMock": 5650,
      "Ġagainst": 5651,
      "Ġmemb": 5652,
      "ĠBoston": 5653,
      "Ġfeel": 5654,
      "ĠHeavenly": 5655,
      "Ġensure": 5656,
      "Ro": 5657,
      "Ġcajun": 5658,
      "Ġmain": 5659,
      "order": 5660,
      "heated": 5661,
      "ĠHun": 5662,
      "ĠLoos": 5663,
      "bean": 5664,
      "ĠPierce": 5665,
      "ĠBetter": 5666,
      "bu": 5667,
      "mine": 5668,
      "Ġ75": 5669,
      "Ġpats": 5670,
      "ĠCow": 5671,
      "ĠADD": 5672,
      "uffle": 5673,
      "napper": 5674,
      "Ġliberally": 5675,
      "Ġsteel": 5676,
      "Ġpacked": 5677,
      "ĠSmok": 5678,
      "ĠCucumbers": 5679,
      "Ġcombining": 5680,
      "ĠSTIR": 5681,
      "Ġmatzo": 5682,
      "Ġstorage": 5683,
      "Ġmembran": 5684,
      "Mix": 5685,
      "No": 5686,
      "ae": 5687,
      "Ġcare": 5688,
      "ales": 5689,
      "ĠBeg": 5690,
      "Ġlb": 5691,
      "Ġhomemade": 5692,
      "Ġhummus": 5693,
      "ĠCoca": 5694,
      "stini": 5695,
      "ĠLinguine": 5696,
      "ĠOR": 5697,
      "Ġheart": 5698,
      "ĠBeaters": 5699,
      "ĠThrow": 5700,
      "ĠNever": 5701,
      "ĠTwist": 5702,
      "Ġbasmati": 5703,
      "ĠScramble": 5704,
      "Ġbelow": 5705,
      "nocchi": 5706,
      "Ġparm": 5707,
      "ĠScore": 5708,
      "ĠScones": 5709,
      "Ġdid": 5710,
      "Ġeye": 5711,
      "Ġsav": 5712,
      "ĠWor": 5713,
      "Ġyet": 5714,
      "ĠReub": 5715,
      "iest": 5716,
      "ĠThicken": 5717,
      "Ġdep": 5718,
      "oulash": 5719,
      "Ġquartered": 5720,
      "ĠAND": 5721,
      "ologna": 5722,
      "Ġsolution": 5723,
      "SS": 5724,
      "set": 5725,
      "orr": 5726,
      "Ġeyes": 5727,
      "Ġlit": 5728,
      "ĠMother": 5729,
      "aditional": 5730,
      "ided": 5731,
      "Ġlemongrass": 5732,
      "Ġslushy": 5733,
      "ĠChopped": 5734,
      "Ġveggie": 5735,
      "inguini": 5736,
      "Ġfitting": 5737,
      "ĠMarshmallows": 5738,
      "Ġjulienne": 5739,
      "tobello": 5740,
      "Aid": 5741,
      "Ġcacao": 5742,
      "ourmet": 5743,
      "isweet": 5744,
      "Ġgro": 5745,
      "ucc": 5746,
      "Ġ28": 5747,
      "Ġthink": 5748,
      "ĠFaj": 5749,
      "Ġgaram": 5750,
      "ĠCherries": 5751,
      "ompan": 5752,
      "ĠGet": 5753,
      "see": 5754,
      "ĠEl": 5755,
      "Ġfolding": 5756,
      "aikon": 5757,
      "Ġwilt": 5758,
      "Ġresemble": 5759,
      "ĠSubstitute": 5760,
      "ĠMagic": 5761,
      "Ġcer": 5762,
      "Ġoval": 5763,
      "dden": 5764,
      "amous": 5765,
      "Ġ150": 5766,
      "Ġlite": 5767,
      "Ġstro": 5768,
      "Ġstain": 5769,
      "ĠFive": 5770,
      "ĠChar": 5771,
      "ĠKisses": 5772,
      "paration": 5773,
      "arboil": 5774,
      "ĠAny": 5775,
      "Ġelastic": 5776,
      "ĠBlanch": 5777,
      "urrito": 5778,
      "Lemon": 5779,
      "Cola": 5780,
      "deg": 5781,
      "ero": 5782,
      "ĠPOU": 5783,
      "ĠBAKE": 5784,
      "ists": 5785,
      "Ġ32": 5786,
      "right": 5787,
      "ĠTil": 5788,
      "Ġnavy": 5789,
      "ĠStri": 5790,
      "ĠLobster": 5791,
      "ĠDipping": 5792,
      "uds": 5793,
      "Ġeaten": 5794,
      "azelnut": 5795,
      "ĠChunky": 5796,
      "arbeque": 5797,
      "And": 5798,
      "iago": 5799,
      "overs": 5800,
      "ĠIN": 5801,
      "Ġau": 5802,
      "ARE": 5803,
      "Ġbok": 5804,
      "ĠPile": 5805,
      "olina": 5806,
      "ĠLog": 5807,
      "Ġrows": 5808,
      "Ġimmersion": 5809,
      "crust": 5810,
      "Ġsemisweet": 5811,
      "flour": 5812,
      "Ġfollows": 5813,
      "Ġtilapia": 5814,
      "----": 5815,
      "Ġreheated": 5816,
      "Ġtbs": 5817,
      "Ġpestle": 5818,
      "Ġfrit": 5819,
      "iti": 5820,
      "rom": 5821,
      "ĠPomegranate": 5822,
      "Ġminimum": 5823,
      "ĠCoke": 5824,
      "ĠRing": 5825,
      "Ġcreamer": 5826,
      "Ġseperate": 5827,
      "ĠLazy": 5828,
      "ĠGoulash": 5829,
      "ĠHand": 5830,
      "ĠNacho": 5831,
      "Ġpoints": 5832,
      "ĠCanadian": 5833,
      "ĠDiet": 5834,
      "Ġmonterey": 5835,
      "addock": 5836,
      "Ġscramble": 5837,
      "Ġrequired": 5838,
      "Glazed": 5839,
      "ĠKool": 5840,
      "Ġromano": 5841,
      "Ġdepth": 5842,
      "com": 5843,
      "Ġpipe": 5844,
      "Ġfac": 5845,
      "Ġnorm": 5846,
      "Ġshiitake": 5847,
      "ĠQuesadillas": 5848,
      "ĠCranberries": 5849,
      "Ġlooking": 5850,
      "aturated": 5851,
      "Ġoriginal": 5852,
      "iar": 5853,
      "Ġed": 5854,
      "Ġsim": 5855,
      "Ġphy": 5856,
      "ane": 5857,
      "ĠMor": 5858,
      "ushed": 5859,
      "ĠRaw": 5860,
      "Ġalready": 5861,
      "isserie": 5862,
      "ĠKey": 5863,
      "Ġsalads": 5864,
      "blets": 5865,
      "ĠFlake": 5866,
      "Ġbrew": 5867,
      "Ġpeeler": 5868,
      "ortant": 5869,
      "Ġsecurely": 5870,
      "Ġavailable": 5871,
      "Ġpersimmon": 5872,
      "ĠSunday": 5873,
      "ĠSouthwestern": 5874,
      "Ġstraight": 5875,
      "ĠReuben": 5876,
      "dger": 5877,
      "yed": 5878,
      "Ġmousse": 5879,
      "ouch": 5880,
      "ĠSER": 5881,
      "Ġletting": 5882,
      "Ġmove": 5883,
      "Ġgoes": 5884,
      "etti": 5885,
      "Ġdistributed": 5886,
      "cheese": 5887,
      "dren": 5888,
      "laze": 5889,
      "Ġbund": 5890,
      "itam": 5891,
      "Ġcognac": 5892,
      "pps": 5893,
      "Ġunif": 5894,
      "Ġuntill": 5895,
      "ĠMill": 5896,
      "ĠStr": 5897,
      "abag": 5898,
      "Ġwhirl": 5899,
      "ult": 5900,
      "Ġcane": 5901,
      "ĠKn": 5902,
      "Ġraise": 5903,
      "ĠThere": 5904,
      "Ġlengths": 5905,
      "ĠCrabmeat": 5906,
      "Ġcrystals": 5907,
      "Ġfrankfurters": 5908,
      "Ġuniform": 5909,
      "ever": 5910,
      "nic": 5911,
      "well": 5912,
      "itation": 5913,
      "ĠMama": 5914,
      "ĠTon": 5915,
      "ĠWinter": 5916,
      "abella": 5917,
      "Ġwhere": 5918,
      "Ġrose": 5919,
      "Ġhalve": 5920,
      "Ġsquid": 5921,
      "ĠCheeseburger": 5922,
      "Ġpickled": 5923,
      "ĠChex": 5924,
      "Ġfranks": 5925,
      "Ġscalded": 5926,
      "hydrate": 5927,
      "Ġphyllo": 5928,
      "cal": 5929,
      "ek": 5930,
      "ris": 5931,
      "Ġsch": 5932,
      "Ġcall": 5933,
      "Ġmuddle": 5934,
      "Ġeggnog": 5935,
      "ĠInstant": 5936,
      "antime": 5937,
      "ĠPreparation": 5938,
      "napps": 5939,
      "iana": 5940,
      "ĠThat": 5941,
      "Ġperfor": 5942,
      "ĠNutritional": 5943,
      "Ġgrains": 5944,
      "ĠMargarita": 5945,
      "Ġcornflake": 5946,
      "ĠFrittata": 5947,
      "ĠPhilly": 5948,
      "Ġimitation": 5949,
      "Ġtomatillos": 5950,
      "ĠZiploc": 5951,
      "Ġrigatoni": 5952,
      "blend": 5953,
      "close": 5954,
      "save": 5955,
      "Ġ)": 5956,
      "Ġsink": 5957,
      "Ġbal": 5958,
      "ĠSangria": 5959,
      "ĠSprite": 5960,
      "ĠFluffy": 5961,
      "Ġconfectioner": 5962,
      "Ġsealing": 5963,
      "ĠMargarine": 5964,
      "Ġshaped": 5965,
      "ĠCOMB": 5966,
      "ordfish": 5967,
      "Ġaro": 5968,
      "ppos": 5969,
      "Ġlavender": 5970,
      "urry": 5971,
      "quettes": 5972,
      "Ġassemble": 5973,
      "ify": 5974,
      "ĠEnd": 5975,
      "loins": 5976,
      "Ġcurls": 5977,
      "ĠFillets": 5978,
      "dorf": 5979,
      "ĠCOMBINE": 5980,
      "Lime": 5981,
      "ĠCub": 5982,
      "ĠBut": 5983,
      "ĠAut": 5984,
      "ĠTarragon": 5985,
      "ĠWil": 5986,
      "Ġgrams": 5987,
      "Ġfreezes": 5988,
      "Ġanything": 5989,
      "Ġblossom": 5990,
      "ĠWaldorf": 5991,
      "Ġcornflour": 5992,
      "ĠDivan": 5993,
      "Ġpopsicle": 5994,
      "325": 5995,
      "Ġi": 5996,
      "Ġcitrus": 5997,
      "Ġwere": 5998,
      "ĠSage": 5999,
      "ppies": 6000,
      "vein": 6001,
      "ume": 6002,
      "ĠTB": 6003,
      "Ġ225": 6004,
      "ĠDun": 6005,
      "ĠFiber": 6006,
      "eltzer": 6007,
      "Ġexp": 6008,
      "Ġiceberg": 6009,
      "Ġfinal": 6010,
      "ĠNutty": 6011,
      "ELL": 6012,
      "Ġscrambled": 6013,
      "Ġpkg": 6014,
      "'d": 6015,
      "Be": 6016,
      "UM": 6017,
      "mi": 6018,
      "tain": 6019,
      "itch": 6020,
      "Ġloses": 6021,
      "ĠDoll": 6022,
      "ĠLift": 6023,
      "Ġsource": 6024,
      "ĠPears": 6025,
      "Ġscrew": 6026,
      "ĠCornish": 6027,
      "Ġpierce": 6028,
      "Mex": 6029,
      "Rice": 6030,
      "ipp": 6031,
      "via": 6032,
      "Ġcu": 6033,
      "Ġore": 6034,
      "ĠSriracha": 6035,
      "ĠWay": 6036,
      "ĠChickpea": 6037,
      "Ġtenders": 6038,
      "Ġoutdo": 6039,
      "Ġgetting": 6040,
      "Ġ165": 6041,
      "Ġhere": 6042,
      "Ġbasic": 6043,
      "ĠScrambled": 6044,
      "ĠAmaretto": 6045,
      "ĠTurtle": 6046,
      "Ġescape": 6047,
      "ĠFloat": 6048,
      "Ġperforations": 6049,
      "izzle": 6050,
      "Ġok": 6051,
      "arole": 6052,
      "ĠPers": 6053,
      "Ġ190": 6054,
      "otto": 6055,
      "ĠFamous": 6056,
      "inned": 6057,
      "Ġbitter": 6058,
      "Ġfilet": 6059,
      "Ġgoing": 6060,
      "Stuffed": 6061,
      "ĠGranny": 6062,
      "ĠWorld": 6063,
      "PT": 6064,
      "end": 6065,
      "Ġbbq": 6066,
      "Ġmg": 6067,
      "ille": 6068,
      "ĠColl": 6069,
      "illi": 6070,
      "Ġstarter": 6071,
      "ĠRings": 6072,
      "Ġruss": 6073,
      "Ġkabobs": 6074,
      "Ġsmoothie": 6075,
      "ĠJambal": 6076,
      "ysis": 6077,
      "Ġvers": 6078,
      "ĠCongeal": 6079,
      "ĠAlternately": 6080,
      "ĠRotel": 6081,
      "Cr": 6082,
      "Nut": 6083,
      "drained": 6084,
      "hat": 6085,
      "rang": 6086,
      "upper": 6087,
      "ilar": 6088,
      "arind": 6089,
      "alysis": 6090,
      "ĠSake": 6091,
      "ĠCholesterol": 6092,
      "ĠReal": 6093,
      "ĠEle": 6094,
      "weed": 6095,
      "vest": 6096,
      "ĠButterfinger": 6097,
      "ĠPeppermint": 6098,
      "ĠCanola": 6099,
      "ĠAppetizers": 6100,
      "400": 6101,
      "Ġmethod": 6102,
      "ĠSheet": 6103,
      "ĠTotal": 6104,
      "angerine": 6105,
      "ĠHidden": 6106,
      "Ġstainless": 6107,
      "55": 6108,
      "aff": 6109,
      "cts": 6110,
      "ler": 6111,
      "ĠRE": 6112,
      "Ġsizz": 6113,
      "ĠmL": 6114,
      "ĠCalorie": 6115,
      "orino": 6116,
      "Ġchange": 6117,
      "eth": 6118,
      "ĠTap": 6119,
      "Ġvelve": 6120,
      "ĠLim": 6121,
      "ĠGe": 6122,
      "ĠReplace": 6123,
      "ĠCrisps": 6124,
      "Ġdevelop": 6125,
      "Ġsmith": 6126,
      "Ġopening": 6127,
      "Ġbulb": 6128,
      "clair": 6129,
      "ĠTortillas": 6130,
      "Ġpassion": 6131,
      "ĠNorthern": 6132,
      "ĠJambalaya": 6133,
      "upperware": 6134,
      "Dried": 6135,
      "May": 6136,
      "day": 6137,
      "Ġmesh": 6138,
      "ene": 6139,
      "ĠMud": 6140,
      "resc": 6141,
      "Ġ65": 6142,
      "Ġcurrant": 6143,
      "space": 6144,
      "iffon": 6145,
      "Ġpitas": 6146,
      "Ġgranny": 6147,
      "Ġsmell": 6148,
      "mixture": 6149,
      "Ġbeaters": 6150,
      "Ġsomew": 6151,
      "ĠLoosen": 6152,
      "Ġstrokes": 6153,
      "Ġrusset": 6154,
      "boy": 6155,
      "pacho": 6156,
      "Ġmic": 6157,
      "Ġingred": 6158,
      "ities": 6159,
      "ĠSue": 6160,
      "ros": 6161,
      "ĠBel": 6162,
      "ĠBig": 6163,
      "ĠTAC": 6164,
      "Ġradicchio": 6165,
      "ĠLasagne": 6166,
      "Ġchoose": 6167,
      "ĠEd": 6168,
      "shake": 6169,
      "ĠSea": 6170,
      "azpacho": 6171,
      "Ġindividually": 6172,
      "Ġdepends": 6173,
      "Ġrotisserie": 6174,
      "arfaits": 6175,
      "Ġemulsified": 6176,
      "ĠTACO": 6177,
      "Re": 6178,
      "aine": 6179,
      "mar": 6180,
      "oe": 6181,
      "Ġsouffle": 6182,
      "ilute": 6183,
      "Ġpuffy": 6184,
      "Ġwonderful": 6185,
      "Ġfashion": 6186,
      "oncini": 6187,
      "ict": 6188,
      "Ġlunch": 6189,
      "ĠMachine": 6190,
      "ĠDr": 6191,
      "ĠStand": 6192,
      "Ġanalysis": 6193,
      "olland": 6194,
      "here": 6195,
      "Ġmeantime": 6196,
      "Ġunbeaten": 6197,
      "ĠPoached": 6198,
      "ĠColby": 6199,
      "Ġdisapp": 6200,
      "Ġclosely": 6201,
      "iki": 6202,
      "ĠHerbs": 6203,
      "alamata": 6204,
      "ĠRagu": 6205,
      "rescents": 6206,
      "23": 6207,
      "FF": 6208,
      "Ġface": 6209,
      "icum": 6210,
      "eseed": 6211,
      "Ġsautee": 6212,
      "ĠFe": 6213,
      "resso": 6214,
      "une": 6215,
      "Ġkraut": 6216,
      "ĠEsp": 6217,
      "loves": 6218,
      "ĠJer": 6219,
      "azing": 6220,
      "Ġheadspace": 6221,
      "ĠBlueberries": 6222,
      "meats": 6223,
      "ĠOrzo": 6224,
      "Ġcreating": 6225,
      "ĠPolish": 6226,
      "bergine": 6227,
      "Ġspiral": 6228,
      "bottomed": 6229,
      "AY": 6230,
      "FT": 6231,
      "my": 6232,
      "Ġblock": 6233,
      "rock": 6234,
      "Ġdire": 6235,
      "Ġdivid": 6236,
      "aces": 6237,
      "ĠMound": 6238,
      "Ġflaky": 6239,
      "ĠTbs": 6240,
      "ĠDark": 6241,
      "Ġrins": 6242,
      "Ġshiny": 6243,
      "ĠKielbasa": 6244,
      "ĠUS": 6245,
      "Ġneeds": 6246,
      "ĠFreezer": 6247,
      "Ġdiam": 6248,
      "ĠClusters": 6249,
      "Ġmostly": 6250,
      "ĠVeggies": 6251,
      "ĠWait": 6252,
      "Ġhazelnut": 6253,
      "esadilla": 6254,
      "ĠCompany": 6255,
      "Ġcontinuing": 6256,
      "Ġattachment": 6257,
      "ĠSaucy": 6258,
      "Ġoutdoor": 6259,
      "but": 6260,
      "ĠBurritos": 6261,
      "Ġsup": 6262,
      "ĠFig": 6263,
      "Ġseams": 6264,
      "Ġalcohol": 6265,
      "Ġnutmeats": 6266,
      "Ġtossed": 6267,
      "Ġfilter": 6268,
      "etty": 6269,
      "ĠBlood": 6270,
      "Cho": 6271,
      "Ġdecorative": 6272,
      "ĠCompote": 6273,
      "ĠPinto": 6274,
      "ĠPinwheels": 6275,
      "Ġrecommended": 6276,
      "ĠSlices": 6277,
      "Roasted": 6278,
      "wheat": 6279,
      "Ġcor": 6280,
      "arrow": 6281,
      "ĠPim": 6282,
      "ĠBleu": 6283,
      "ĠMacaroons": 6284,
      "Ġvent": 6285,
      "ĠLou": 6286,
      "aped": 6287,
      "ope": 6288,
      "ĠEclair": 6289,
      "Ġexact": 6290,
      "arines": 6291,
      "Ġdevein": 6292,
      "ĠUnwrap": 6293,
      "ĠMarinara": 6294,
      "ĠAssemble": 6295,
      "Ġfettucine": 6296,
      "ĠHalibut": 6297,
      "Ġmincemeat": 6298,
      "ĠWafers": 6299,
      "ĠBegin": 6300,
      "Ġsimilar": 6301,
      "baked": 6302,
      "den": 6303,
      "ged": 6304,
      "Ġcal": 6305,
      "Ġoppos": 6306,
      "Ġbird": 6307,
      "Ġtots": 6308,
      "Ġunmold": 6309,
      "Ġchick": 6310,
      "Ġhr": 6311,
      "ĠMark": 6312,
      "usel": 6313,
      "chatel": 6314,
      "Ġnarrow": 6315,
      "iments": 6316,
      "ĠFun": 6317,
      "ĠWedges": 6318,
      "Ġrough": 6319,
      "Ġstirred": 6320,
      "Ġmarble": 6321,
      "Ġsourdough": 6322,
      "Ġtenderloins": 6323,
      "ĠCooler": 6324,
      "ĠKe": 6325,
      "ecially": 6326,
      "izer": 6327,
      "ĠFruity": 6328,
      "ampi": 6329,
      "ĠMuffin": 6330,
      "cedure": 6331,
      "Ġhock": 6332,
      "Ġimportant": 6333,
      "bury": 6334,
      "Ġceramic": 6335,
      "Ġschnapps": 6336,
      "Ġdirects": 6337,
      "babs": 6338,
      "dry": 6339,
      "Ġsodium": 6340,
      "Ġseltzer": 6341,
      "Ġfiber": 6342,
      "ĠSome": 6343,
      "ĠPare": 6344,
      "ados": 6345,
      "Ġfluted": 6346,
      "ĠRis": 6347,
      "ĠSpareribs": 6348,
      "Ġrather": 6349,
      "ĠReese": 6350,
      "ĠHard": 6351,
      "ĠNachos": 6352,
      "ĠGruyere": 6353,
      "Ġspoons": 6354,
      "iffy": 6355,
      "Ġmeld": 6356,
      "Ġmashing": 6357,
      "ĠCrumbs": 6358,
      "ufchatel": 6359,
      "ĠColada": 6360,
      "ignon": 6361,
      "Ġsometimes": 6362,
      "ingersnaps": 6363,
      "ĠMIX": 6364,
      "'m": 6365,
      "VER": 6366,
      "aur": 6367,
      "Ġacorn": 6368,
      "reusel": 6369,
      "Ġposition": 6370,
      "garian": 6371,
      "ĠPa": 6372,
      "ĠBit": 6373,
      "Ġjigg": 6374,
      "ights": 6375,
      "ĠEas": 6376,
      "ĠSaut": 6377,
      "Ġprocedure": 6378,
      "Ġenclose": 6379,
      "Ġsoya": 6380,
      "Ġbrisk": 6381,
      "Ġbreadcrumb": 6382,
      "ĠHeavy": 6383,
      "attice": 6384,
      "Ġshoots": 6385,
      "Ġproduct": 6386,
      "razy": 6387,
      "Ġedamame": 6388,
      "Ġbalance": 6389,
      "bed": 6390,
      "lap": 6391,
      "Ġsimply": 6392,
      "Ġcrimp": 6393,
      "Ġtbl": 6394,
      "Ġbologna": 6395,
      "Ġpa": 6396,
      "Ġfound": 6397,
      "ĠPar": 6398,
      "Ġdaikon": 6399,
      "ĠBlo": 6400,
      "ĠRadish": 6401,
      "Ġnori": 6402,
      "ounder": 6403,
      "Ġbreadsticks": 6404,
      "anana": 6405,
      "Ġstrained": 6406,
      "Ġmallet": 6407,
      "ĠSnicker": 6408,
      "Ġhusks": 6409,
      "Ġintact": 6410,
      "ĠRocky": 6411,
      "Ġsomewhat": 6412,
      "Apple": 6413,
      "lf": 6414,
      "inity": 6415,
      "Ġblo": 6416,
      "ĠBrandy": 6417,
      "Ġlabel": 6418,
      "olf": 6419,
      "Ġhad": 6420,
      "ĠCod": 6421,
      "ĠTHE": 6422,
      "Ġcrunch": 6423,
      "ups": 6424,
      "Ġenvelop": 6425,
      "Ġspreadable": 6426,
      "Ġrims": 6427,
      "Ġbrussels": 6428,
      "Ġwraps": 6429,
      "ĠCheeri": 6430,
      "Ġ140": 6431,
      "formation": 6432,
      "ĠCowboy": 6433,
      "ollandaise": 6434,
      "AM": 6435,
      "OVE": 6436,
      "pher": 6437,
      "Ġtuck": 6438,
      "ĠBetty": 6439,
      "Ġgorgonzola": 6440,
      "Ġlasagne": 6441,
      "olly": 6442,
      "ĠDanish": 6443,
      "Ġspots": 6444,
      "Ġthumb": 6445,
      "ĠGive": 6446,
      "ĠHome": 6447,
      "ĠHEAT": 6448,
      "ĠORE": 6449,
      "ĠPrep": 6450,
      "afing": 6451,
      "Ġbagels": 6452,
      "ĠRoad": 6453,
      "100": 6454,
      "Ġjellyroll": 6455,
      "Ġcaramelize": 6456,
      "ĠSmoke": 6457,
      "Ġtouching": 6458,
      "ĠOysters": 6459,
      "Ġgroc": 6460,
      "jack": 6461,
      "mesh": 6462,
      "Ġself": 6463,
      "ĠCav": 6464,
      "Ġlinguini": 6465,
      "Ġcholesterol": 6466,
      "Ġhaddock": 6467,
      "Ġsalty": 6468,
      "ggy": 6469,
      "ĠRest": 6470,
      "ĠTet": 6471,
      "Ġjuicy": 6472,
      "estive": 6473,
      "Ġbutt": 6474,
      "ĠSlightly": 6475,
      "ĠFlakes": 6476,
      "ĠCornmeal": 6477,
      "Ġbrittle": 6478,
      "Ġpitted": 6479,
      "ĠMayo": 6480,
      "Ġchewy": 6481,
      "Ġfourths": 6482,
      "Ġstovetop": 6483,
      "Ġstewing": 6484,
      "ĠTruffles": 6485,
      "Ġcapsicum": 6486,
      "ĠHarvest": 6487,
      "retch": 6488,
      "ĠMillion": 6489,
      "four": 6490,
      "iod": 6491,
      "wurst": 6492,
      "Ġborder": 6493,
      "Ġmand": 6494,
      "atak": 6495,
      "Ġdefrost": 6496,
      "ĠBul": 6497,
      "aced": 6498,
      "Ġeff": 6499,
      "Ġchafing": 6500,
      "Ġvol": 6501,
      "ĠDash": 6502,
      "Ġpanini": 6503,
      "Ġthose": 6504,
      "ĠGazpacho": 6505,
      "Ġisn": 6506,
      "Ġkisses": 6507,
      "Ġquant": 6508,
      "Ġart": 6509,
      "ulled": 6510,
      "ĠTequila": 6511,
      "Ġcrepe": 6512,
      "ĠFoods": 6513,
      "ĠShortcake": 6514,
      "aut": 6515,
      "hi": 6516,
      "mins": 6517,
      "work": 6518,
      "Ġbrand": 6519,
      "Ġbuck": 6520,
      "Ġmush": 6521,
      "Ġfeed": 6522,
      "edding": 6523,
      "asmine": 6524,
      "ĠPizzas": 6525,
      "elle": 6526,
      "ĠBlender": 6527,
      "Ġflipping": 6528,
      "ĠDuck": 6529,
      "ĠGold": 6530,
      "ĠGumbo": 6531,
      "Ġchopper": 6532,
      "fried": 6533,
      "Ġmeatloaf": 6534,
      "Ġthroughly": 6535,
      "ĠSherbet": 6536,
      "Ġusual": 6537,
      "ĠQueso": 6538,
      "Ġindentation": 6539,
      "ahi": 6540,
      "Chicken": 6541,
      "Ġcongealed": 6542,
      "boiled": 6543,
      "uriko": 6544,
      "ĠFajitas": 6545,
      "ĠOREO": 6546,
      "atakuriko": 6547,
      "bake": 6548,
      "melt": 6549,
      "rone": 6550,
      "Ġtub": 6551,
      "Ġfig": 6552,
      "ĠSaran": 6553,
      "ĠPine": 6554,
      "Ġdisp": 6555,
      "ĠBa": 6556,
      "Ġgummy": 6557,
      "Ġhickory": 6558,
      "usilli": 6559,
      "ety": 6560,
      "ĠRye": 6561,
      "ĠTbl": 6562,
      "urch": 6563,
      "ĠHold": 6564,
      "Ġslide": 6565,
      "Ġtenderness": 6566,
      "Ġappetizers": 6567,
      "Ġsweetness": 6568,
      "ĠFlore": 6569,
      "ĠFlank": 6570,
      "Ġkids": 6571,
      "Ġgiblets": 6572,
      "ussel": 6573,
      "Ġhelps": 6574,
      "ĠSticky": 6575,
      "Ġtamari": 6576,
      "Ġcollard": 6577,
      "ĠLeek": 6578,
      "ĠPraline": 6579,
      "Baked": 6580,
      "tip": 6581,
      "Ġ[": 6582,
      "Ġpouch": 6583,
      "ortening": 6584,
      "ĠPaste": 6585,
      "Ġgnocchi": 6586,
      "Ġhome": 6587,
      "ĠMore": 6588,
      "razz": 6589,
      "Ġsaut": 6590,
      "ĠWrapped": 6591,
      "ĠGourmet": 6592,
      "eek": 6593,
      "Ġupright": 6594,
      "ĠJiffy": 6595,
      "Ġlayered": 6596,
      "ĠYork": 6597,
      "izes": 6598,
      "ĠMove": 6599,
      "ĠStock": 6600,
      "Ġknow": 6601,
      "Ġpockets": 6602,
      "ĠChef": 6603,
      "ĠAnn": 6604,
      "ritz": 6605,
      "ĠDebone": 6606,
      "Ġdelic": 6607,
      "Ġrotating": 6608,
      "depending": 6609,
      "ĠSouthwest": 6610,
      "Ġdrizzled": 6611,
      "ĠCheerios": 6612,
      "ĠTetrazz": 6613,
      "gared": 6614,
      "jo": 6615,
      "sof": 6616,
      "ĠMiso": 6617,
      "ickel": 6618,
      "illo": 6619,
      "Ġrep": 6620,
      "Ġrender": 6621,
      "ĠDefrost": 6622,
      "imate": 6623,
      "Ġgarden": 6624,
      "acker": 6625,
      "Ġshelf": 6626,
      "ung": 6627,
      "ĠEaster": 6628,
      "ĠSautee": 6629,
      "blano": 6630,
      "Ġtoward": 6631,
      "Ġcoupe": 6632,
      "Ġnectarines": 6633,
      "ĠLiver": 6634,
      "ĠDivinity": 6635,
      "ĠVariation": 6636,
      "ĠTwinkies": 6637,
      "Ġopposite": 6638,
      "pherd": 6639,
      "ĠTetrazzini": 6640,
      "Sour": 6641,
      "drain": 6642,
      "ww": 6643,
      "wine": 6644,
      "ĠCoriander": 6645,
      "ĠSodium": 6646,
      "aken": 6647,
      "Ġdont": 6648,
      "ĠBra": 6649,
      "ĠDirect": 6650,
      "Ġsoupy": 6651,
      "Ġrock": 6652,
      "avily": 6653,
      "Ġsoaking": 6654,
      "Ġcovers": 6655,
      "estrone": 6656,
      "ĠKiss": 6657,
      "Ġtablespoonful": 6658,
      "Ġnutritional": 6659,
      "ĠChilled": 6660,
      "Ġperiod": 6661,
      "Ġflatbread": 6662,
      "ĠScampi": 6663,
      "ĠCroutons": 6664,
      "ĠPickle": 6665,
      "chopped": 6666,
      "ĠSkewers": 6667,
      "ĠKnorr": 6668,
      "Ġgrocery": 6669,
      "Ġtater": 6670,
      "Ġpump": 6671,
      "Ġwipe": 6672,
      "onion": 6673,
      "rove": 6674,
      "ĠPate": 6675,
      "Ġele": 6676,
      "Ġears": 6677,
      "ĠMelon": 6678,
      "ĠMorning": 6679,
      "rabs": 6680,
      "ĠRav": 6681,
      "apted": 6682,
      "aving": 6683,
      "orean": 6684,
      "Ġ80": 6685,
      "Ġstandard": 6686,
      "Ġaccompan": 6687,
      "ormel": 6688,
      "Ġpuffs": 6689,
      "ĠPlate": 6690,
      "ĠShepherd": 6691,
      "Ġshortbread": 6692,
      "Ġtamarind": 6693,
      "ĠTOP": 6694,
      "ĠPreserves": 6695,
      "Ġfunnel": 6696,
      "itamin": 6697,
      "Eyed": 6698,
      "slic": 6699,
      "tes": 6700,
      "Ġbarbeque": 6701,
      "ĠPipe": 6702,
      "Ġsaucepot": 6703,
      "immers": 6704,
      "ction": 6705,
      "Ġdraining": 6706,
      "ĠBrowns": 6707,
      "Ġcleaned": 6708,
      "ĠCarib": 6709,
      "ĠTemp": 6710,
      "Ġfinally": 6711,
      "undy": 6712,
      "Ġrotary": 6713,
      "ĠHealthier": 6714,
      "ĠVerde": 6715,
      "Ġrabbit": 6716,
      "Ġcrisscross": 6717,
      "ĠSmoky": 6718,
      "ĠCongealed": 6719,
      "Ġvolume": 6720,
      "Min": 6721,
      "ores": 6722,
      "Ġsor": 6723,
      "Ġbow": 6724,
      "arro": 6725,
      "icky": 6726,
      "ghorn": 6727,
      "ĠDad": 6728,
      "ĠHour": 6729,
      "ĠHormel": 6730,
      "ervil": 6731,
      "Ġalone": 6732,
      "Ġcarbo": 6733,
      "Ġapply": 6734,
      "shaped": 6735,
      "Ġupon": 6736,
      "Ġdesign": 6737,
      "Ġclumps": 6738,
      "Ġbroiling": 6739,
      "ĠSourdough": 6740,
      "Ġabsorbent": 6741,
      "ĠNeufchatel": 6742,
      "ĠStarting": 6743,
      "ĠJoe": 6744,
      "urgundy": 6745,
      "Ġziplock": 6746,
      "Ġchecking": 6747,
      "ĠCarbo": 6748,
      "ĠGrapefruit": 6749,
      "ĠShallots": 6750,
      "ĠTilapia": 6751,
      "inc": 6752,
      "Ġcrowd": 6753,
      "Ġob": 6754,
      "icer": 6755,
      "ĠParfaits": 6756,
      "Ġdress": 6757,
      "Ġliter": 6758,
      "ĠAmb": 6759,
      "Ġhar": 6760,
      "ĠMal": 6761,
      "ĠWedding": 6762,
      "colored": 6763,
      "ĠGall": 6764,
      "ĠHazelnut": 6765,
      "ĠOther": 6766,
      "Ġhalibut": 6767,
      "Ġchilis": 6768,
      "ĠKraft": 6769,
      "Ġenchiladas": 6770,
      "Ġturnip": 6771,
      "Ġnonreactive": 6772,
      "ĠMoist": 6773,
      "Ġcling": 6774,
      "Ġcrepes": 6775,
      "Ġdashi": 6776,
      "abocha": 6777,
      "ĠMississ": 6778,
      "ippi": 6779,
      "Ġbriskly": 6780,
      "Cream": 6781,
      "gen": 6782,
      "giving": 6783,
      "ki": 6784,
      "mother": 6785,
      "ng": 6786,
      "nam": 6787,
      "ĠFingers": 6788,
      "ĠSparkling": 6789,
      "ĠLat": 6790,
      "sec": 6791,
      "season": 6792,
      "ĠSear": 6793,
      "ĠMein": 6794,
      "Ġcurl": 6795,
      "Ġportabella": 6796,
      "ĠDoughnuts": 6797,
      "ĠCrepes": 6798,
      "phant": 6799,
      "ĠSnacks": 6800,
      "ĠPretzels": 6801,
      "Ġgumd": 6802,
      "Ġmotor": 6803,
      "Ġsavory": 6804,
      "Ġrinsed": 6805,
      "ĠMississippi": 6806,
      "On": 6807,
      "Pl": 6808,
      "bably": 6809,
      "foil": 6810,
      "tips": 6811,
      "Ġ~": 6812,
      "Ġfaj": 6813,
      "ĠPRE": 6814,
      "ĠPark": 6815,
      "ĠPenn": 6816,
      "Ġlattice": 6817,
      "Ġchervil": 6818,
      "Ġnine": 6819,
      "ĠChives": 6820,
      "ĠChiffon": 6821,
      "Ġalfredo": 6822,
      "ĠEach": 6823,
      "Ġprov": 6824,
      "ĠFilled": 6825,
      "Ġcereals": 6826,
      "ĠMeatball": 6827,
      "Ġkneading": 6828,
      "Ġdusted": 6829,
      "Ġthreads": 6830,
      "Crust": 6831,
      "rosia": 6832,
      "ĠRisotto": 6833,
      "ĠAmbrosia": 6834,
      "Bro": 6835,
      "Bone": 6836,
      "bble": 6837,
      "fetti": 6838,
      "gan": 6839,
      "Ġburrito": 6840,
      "Ġmouth": 6841,
      "ils": 6842,
      "ĠBou": 6843,
      "umn": 6844,
      "ĠSpam": 6845,
      "Ġgrater": 6846,
      "ĠChest": 6847,
      "ĠRefresh": 6848,
      "ĠHell": 6849,
      "ĠHush": 6850,
      "Ġvegetarian": 6851,
      "mear": 6852,
      "shine": 6853,
      "ĠKRA": 6854,
      "ĠUlt": 6855,
      "Ġspooning": 6856,
      "Ġsciss": 6857,
      "Ġtwists": 6858,
      "ecan": 6859,
      "ountain": 6860,
      "Ġsoftens": 6861,
      "Ġsurround": 6862,
      "ĠProven": 6863,
      "ĠCrostini": 6864,
      "Ġcanner": 6865,
      "Ġdashes": 6866,
      "ĠBlossom": 6867,
      "ĠConfection": 6868,
      "ĠWeight": 6869,
      "mann": 6870,
      "ĠTamale": 6871,
      "Ġdrumsticks": 6872,
      "uccino": 6873,
      "Ġversion": 6874,
      "Ġexactly": 6875,
      "ĠSnickerd": 6876,
      "ĠDirections": 6877,
      "ĠRavioli": 6878,
      "ĠKRAFT": 6879,
      "fill": 6880,
      "ju": 6881,
      "occ": 6882,
      "Ġcatfish": 6883,
      "Ġburst": 6884,
      "Ġmould": 6885,
      "atta": 6886,
      "Ġwid": 6887,
      "Ġinformation": 6888,
      "Ġfan": 6889,
      "ica": 6890,
      "ĠPina": 6891,
      "ĠBoy": 6892,
      "Ġla": 6893,
      "ĠTrout": 6894,
      "aban": 6895,
      "ĠChard": 6896,
      "Ġshow": 6897,
      "apes": 6898,
      "efin": 6899,
      "Ġneck": 6900,
      "Ġproper": 6901,
      "ĠButtercream": 6902,
      "ĠChilli": 6903,
      "ĠLeaves": 6904,
      "ĠAncho": 6905,
      "....": 6906,
      "Ġgrainy": 6907,
      "ĠClub": 6908,
      "ĠPoor": 6909,
      "Ġ:)": 6910,
      "ILL": 6911,
      "ernickel": 6912,
      "ĠLiquid": 6913,
      "ĠParmig": 6914,
      "aurant": 6915,
      "ĠCaribbean": 6916,
      "PON": 6917,
      "UFF": 6918,
      "bor": 6919,
      "cinnamon": 6920,
      "sen": 6921,
      "Ġton": 6922,
      "Ġbra": 6923,
      "itions": 6924,
      "vera": 6925,
      "ĠMil": 6926,
      "Ġnor": 6927,
      "ĠDrops": 6928,
      "ĠWw": 6929,
      "reserve": 6930,
      "ĠLon": 6931,
      "Ġslight": 6932,
      "Ġtenderizer": 6933,
      "ĠEar": 6934,
      "Ġchildren": 6935,
      "ĠNon": 6936,
      "ĠGrated": 6937,
      "Ġgluten": 6938,
      "ĠThanks": 6939,
      "Ġprocessed": 6940,
      "ĠSeasoned": 6941,
      "ucky": 6942,
      "Ġpartly": 6943,
      "mavera": 6944,
      "eringues": 6945,
      "Ġguests": 6946,
      "raisins": 6947,
      "Ġrisen": 6948,
      "ĠPartially": 6949,
      "Ġvisit": 6950,
      "aiser": 6951,
      "ĠPOUPON": 6952,
      "Chocolate": 6953,
      "sliced": 6954,
      "Minute": 6955,
      "Gar": 6956,
      "gate": 6957,
      "ho": 6958,
      "ike": 6959,
      "neath": 6960,
      "Ġide": 6961,
      "Ġtim": 6962,
      "Ġtangerine": 6963,
      "ĠSom": 6964,
      "ĠAmeric": 6965,
      "ĠMIR": 6966,
      "issa": 6967,
      "Ġheavily": 6968,
      "ĠButtery": 6969,
      "Ġunderneath": 6970,
      "Ġmanicotti": 6971,
      "Ġtruffle": 6972,
      "ACLE": 6973,
      "ĠWatchers": 6974,
      "ĠTastes": 6975,
      "ĠPralines": 6976,
      "ĠHungarian": 6977,
      "dgerate": 6978,
      "Ġcalled": 6979,
      "ĠMIRACLE": 6980,
      "Banana": 6981,
      "IS": 6982,
      "fruit": 6983,
      "ouille": 6984,
      "ĠParfait": 6985,
      "ĠBun": 6986,
      "ĠBurgundy": 6987,
      "Ġchanges": 6988,
      "Ġnumber": 6989,
      "Ġspear": 6990,
      "ida": 6991,
      "ĠFant": 6992,
      "ĠWet": 6993,
      "ĠWish": 6994,
      "Ġyummy": 6995,
      "ĠLittle": 6996,
      "ĠGin": 6997,
      "Ġhots": 6998,
      "unche": 6999,
      "ĠShortening": 7000,
      "Ġcreole": 7001,
      "ĠFrosted": 7002,
      "ĠRomaine": 7003,
      "Ġziploc": 7004,
      "Ġramekin": 7005,
      "Ġinclude": 7006,
      "Ġcroissants": 7007,
      "Ġliters": 7008,
      "ĠStrata": 7009,
      "Ġcukes": 7010,
      "ething": 7011,
      "Ġdiamond": 7012,
      "Ġeffect": 7013,
      "\")": 7014,
      "24": 7015,
      "Use": 7016,
      "batter": 7017,
      "pecially": 7018,
      "ĠCR": 7019,
      "ĠAhead": 7020,
      "ĠTusc": 7021,
      "Ġjo": 7022,
      "ĠDeg": 7023,
      "rest": 7024,
      "ody": 7025,
      "Ġgrass": 7026,
      "ĠChive": 7027,
      "ĠGrain": 7028,
      "Ġcupfuls": 7029,
      "ĠON": 7030,
      "ĠOut": 7031,
      "anta": 7032,
      "rowroot": 7033,
      "ĠRoot": 7034,
      "stitos": 7035,
      "uda": 7036,
      "Ġhocks": 7037,
      "ĠPrune": 7038,
      "Ġrises": 7039,
      "Ġvegan": 7040,
      "aintain": 7041,
      "ĠExcellent": 7042,
      "ĠGrapes": 7043,
      "Ġportobello": 7044,
      "Ġscorching": 7045,
      "Ġpetals": 7046,
      "ĠMorocc": 7047,
      "//": 7048,
      "Butter": 7049,
      "Gre": 7050,
      "XCE": 7051,
      "back": 7052,
      "dish": 7053,
      "fort": 7054,
      "ml": 7055,
      "yl": 7056,
      "zon": 7057,
      "Ġscore": 7058,
      "Ġpile": 7059,
      "Ġpyrex": 7060,
      "utabag": 7061,
      "ĠBri": 7062,
      "Ġever": 7063,
      "ĠMu": 7064,
      "ĠMarm": 7065,
      "ĠTupperware": 7066,
      "ĠFix": 7067,
      "ĠFud": 7068,
      "ste": 7069,
      "quet": 7070,
      "ĠHow": 7071,
      "Ġnote": 7072,
      "Ġsweeten": 7073,
      "Ġquesadillas": 7074,
      "Ġprocessing": 7075,
      "ĠRose": 7076,
      "ĠCornstarch": 7077,
      "Ġanyone": 7078,
      "apenade": 7079,
      "Ġindirect": 7080,
      "Ġblood": 7081,
      "ĠLike": 7082,
      "ĠPolenta": 7083,
      "ĠCapers": 7084,
      "ĠMacadamia": 7085,
      "ĠPrimavera": 7086,
      "ĠPuppies": 7087,
      "Ġplantains": 7088,
      "Ġvelveeta": 7089,
      "ĠBlond": 7090,
      "secco": 7091,
      "Ġscissors": 7092,
      "uncheon": 7093,
      "ĠMoroccan": 7094,
      "XCEPT": 7095,
      "falf": 7096,
      "Ġawhile": 7097,
      "Ġsnapper": 7098,
      "reau": 7099,
      "Ġbu": 7100,
      "Ġpith": 7101,
      "atz": 7102,
      "ĠCord": 7103,
      "ĠCrawfish": 7104,
      "ĠParboil": 7105,
      "Ġdab": 7106,
      "ĠBE": 7107,
      "ĠAg": 7108,
      "Ġchipped": 7109,
      "Ġpeels": 7110,
      "ĠDan": 7111,
      "Ġthough": 7112,
      "ĠFire": 7113,
      "ĠSteep": 7114,
      "ĠRea": 7115,
      "Ġcones": 7116,
      "andy": 7117,
      "ceed": 7118,
      "ĠEsc": 7119,
      "Ġprobably": 7120,
      "Ġquail": 7121,
      "ĠCarne": 7122,
      "Ġdiet": 7123,
      "Ġchestnut": 7124,
      "Ġswordfish": 7125,
      "Ġado": 7126,
      "ĠSmother": 7127,
      "ĠSnap": 7128,
      "ĠGooey": 7129,
      "ĠBob": 7130,
      "ground": 7131,
      "Ġtotally": 7132,
      "Ġoptions": 7133,
      "autif": 7134,
      "falfa": 7135,
      "://": 7136,
      "Bran": 7137,
      "then": 7138,
      "Ġbuffalo": 7139,
      "Ġtoasts": 7140,
      "ĠSch": 7141,
      "ĠMuddle": 7142,
      "ĠRain": 7143,
      "ĠTahini": 7144,
      "ĠDuring": 7145,
      "ĠLeg": 7146,
      "Ġdoughnut": 7147,
      "Ġstevia": 7148,
      "ĠRolled": 7149,
      "enster": 7150,
      "Ġmarinating": 7151,
      "spray": 7152,
      "Ġdijon": 7153,
      "Ġsmash": 7154,
      "Ġwilts": 7155,
      "Ġblanch": 7156,
      "ĠSmash": 7157,
      "ĠTwice": 7158,
      "Ġsqueezing": 7159,
      "Ġslivers": 7160,
      "Ġfingertips": 7161,
      "acci": 7162,
      "Ġworms": 7163,
      "ĠNotes": 7164,
      "Ġsilver": 7165,
      "ĠPuppy": 7166,
      "ĠTablespoons": 7167,
      "ĠSERVE": 7168,
      "blended": 7169,
      "Ġpaddle": 7170,
      "ĠFlorent": 7171,
      "Crock": 7172,
      "Nuts": 7173,
      "OK": 7174,
      "Sh": 7175,
      "__": 7176,
      "beaten": 7177,
      "fold": 7178,
      "kish": 7179,
      "nie": 7180,
      "pr": 7181,
      "wa": 7182,
      "Ġsizzle": 7183,
      "Ġtum": 7184,
      "Ġmass": 7185,
      "Ġpoured": 7186,
      "ĠCat": 7187,
      "ĠCard": 7188,
      "Ġgolf": 7189,
      "aded": 7190,
      "ills": 7191,
      "atore": 7192,
      "ĠString": 7193,
      "Ġgroup": 7194,
      "ĠChickpeas": 7195,
      "unge": 7196,
      "Ġkalamata": 7197,
      "ĠEvery": 7198,
      "ĠNuggets": 7199,
      "Ġnever": 7200,
      "Ġseeded": 7201,
      "ĠButtered": 7202,
      "Ġotherwise": 7203,
      "Ġknives": 7204,
      "ĠMilkshake": 7205,
      "ĠCroquettes": 7206,
      "Ġgallons": 7207,
      "appuccino": 7208,
      "Ġespecially": 7209,
      "ĠAmish": 7210,
      "hydrates": 7211,
      "ĠEspresso": 7212,
      "ĠConfectioners": 7213,
      "ĠLonghorn": 7214,
      "ĠThanksgiving": 7215,
      "IC": 7216,
      "Layer": 7217,
      "Pineapple": 7218,
      "iger": 7219,
      "Ġtacos": 7220,
      "Ġpal": 7221,
      "ĠSH": 7222,
      "ĠSide": 7223,
      "Ġupper": 7224,
      "ĠBub": 7225,
      "Ġgouda": 7226,
      "Ġnuggets": 7227,
      "ĠDairy": 7228,
      "ĠFoil": 7229,
      "abul": 7230,
      "ĠChorizo": 7231,
      "Ġchocol": 7232,
      "Ġmargarita": 7233,
      "getable": 7234,
      "Ġpapers": 7235,
      "ĠWhirl": 7236,
      "Ġtabasco": 7237,
      "Ġscant": 7238,
      "intreau": 7239,
      "Ġrinds": 7240,
      "ĠContains": 7241,
      "Ġitself": 7242,
      "Ġtesting": 7243,
      "riend": 7244,
      "ĠLentils": 7245,
      "prefer": 7246,
      "ĠMasala": 7247,
      "Ġtreat": 7248,
      "Ġcarton": 7249,
      "ĠAutumn": 7250,
      "melted": 7251,
      "ĠHellmann": 7252,
      "ĠMarmalade": 7253,
      "22": 7254,
      "baking": 7255,
      "got": 7256,
      "hip": 7257,
      "iab": 7258,
      "sl": 7259,
      "reath": 7260,
      "Ġbisqu": 7261,
      "Ġpaint": 7262,
      "ITH": 7263,
      "lee": 7264,
      "otti": 7265,
      "ĠMc": 7266,
      "Ġ220": 7267,
      "Ġsponge": 7268,
      "ĠStreusel": 7269,
      "allions": 7270,
      "Ġgruyere": 7271,
      "omats": 7272,
      "cond": 7273,
      "unk": 7274,
      "Ġexcellent": 7275,
      "Ġblackened": 7276,
      "Ġarrowroot": 7277,
      "Ġmoving": 7278,
      "Ġhardens": 7279,
      "ĠStewed": 7280,
      "Ġdecoration": 7281,
      "Ġsaucer": 7282,
      "coholic": 7283,
      "ĠSnickers": 7284,
      "ĠVariations": 7285,
      "ĠStrips": 7286,
      "ĠUltimate": 7287,
      "omatsuna": 7288,
      "ru": 7289,
      "warm": 7290,
      "Ġcamp": 7291,
      "alle": 7292,
      "ĠSanta": 7293,
      "ĠPeg": 7294,
      "ĠParsn": 7295,
      "iri": 7296,
      "Ġspecial": 7297,
      "imich": 7298,
      "more": 7299,
      "Ġchopping": 7300,
      "ĠHominy": 7301,
      "Ġalfalfa": 7302,
      "ĠWhipping": 7303,
      "Ġplump": 7304,
      "Ġstanding": 7305,
      "Ġcolby": 7306,
      "Ġpicks": 7307,
      "Ġgooey": 7308,
      "eye": 7309,
      "Ġretain": 7310,
      "Ġtinfoil": 7311,
      "ĠMinestrone": 7312,
      "Ġacid": 7313,
      "Ġaccess": 7314,
      "ĠCalico": 7315,
      "Ġsterile": 7316,
      "Ġpulls": 7317,
      "ĠArtichokes": 7318,
      "ĠTraditional": 7319,
      "ĠSunflower": 7320,
      "ĠMiniature": 7321,
      "ĠNOTES": 7322,
      "matic": 7323,
      "stirring": 7324,
      "Ġfalling": 7325,
      "Ġsilken": 7326,
      "ĠDuncan": 7327,
      "ĠDollar": 7328,
      "ĠPersimmon": 7329,
      "Ġsizzling": 7330,
      "Ġartific": 7331,
      "Ġgumdrops": 7332,
      "ĠFlorentine": 7333,
      "Cal": 7334,
      "Di": 7335,
      "Easy": 7336,
      "GE": 7337,
      "Pecan": 7338,
      "PUFF": 7339,
      "TER": 7340,
      "eer": 7341,
      "turn": 7342,
      "Ġ=": 7343,
      "Ġment": 7344,
      "Ġmul": 7345,
      "Ġmaintain": 7346,
      "uting": 7347,
      "Ġwinter": 7348,
      "Ġfalls": 7349,
      "Ġfancy": 7350,
      "onc": 7351,
      "onaise": 7352,
      "itan": 7353,
      "ĠCafe": 7354,
      "ĠCryst": 7355,
      "ĠCacci": 7356,
      "asabi": 7357,
      "ĠPLA": 7358,
      "ĠBu": 7359,
      "ĠAv": 7360,
      "Ġjer": 7361,
      "third": 7362,
      "ighter": 7363,
      "ĠWestern": 7364,
      "ĠWITH": 7365,
      "Ġgratin": 7366,
      "Ġyear": 7367,
      "ĠGouda": 7368,
      "ĠEXCEPT": 7369,
      "ĠJET": 7370,
      "Ġscallop": 7371,
      "Ġdippers": 7372,
      "buttered": 7373,
      "Cooker": 7374,
      "metal": 7375,
      "Ġvariety": 7376,
      "ĠTapioca": 7377,
      "Ġenvelope": 7378,
      "ĠReaLemon": 7379,
      "PUFFED": 7380,
      "gant": 7381,
      "ji": 7382,
      "ract": 7383,
      "ĠCrazy": 7384,
      "Ġdirt": 7385,
      "ĠBark": 7386,
      "ised": 7387,
      "ira": 7388,
      "ĠRoy": 7389,
      "through": 7390,
      "ĠWonderful": 7391,
      "ĠSponge": 7392,
      "aper": 7393,
      "Ġable": 7394,
      "andel": 7395,
      "Ġslush": 7396,
      "ĠKim": 7397,
      "ĠYams": 7398,
      "ĠTostitos": 7399,
      "Ġcondiments": 7400,
      "Ġchef": 7401,
      "ĠMilky": 7402,
      "Ġevaporate": 7403,
      "Ġtrifle": 7404,
      "Ġcircular": 7405,
      "ĠEngland": 7406,
      "ĠCOOK": 7407,
      "ĠColor": 7408,
      "Ġhealthier": 7409,
      "Ġmalt": 7410,
      "Ġcroissant": 7411,
      "rising": 7412,
      "Ġmandol": 7413,
      "ĠBaile": 7414,
      "efinit": 7415,
      "Garlic": 7416,
      "ĠAmerica": 7417,
      "abulous": 7418,
      "Pre": 7419,
      "Tom": 7420,
      "full": 7421,
      "hand": 7422,
      "lin": 7423,
      "make": 7424,
      "Ġcrabs": 7425,
      "esome": 7426,
      "icor": 7427,
      "leas": 7428,
      "ĠBow": 7429,
      "adas": 7430,
      "ĠDown": 7431,
      "Ġthing": 7432,
      "ĠFinger": 7433,
      "ĠHel": 7434,
      "ĠHollandaise": 7435,
      "comb": 7436,
      "Ġsoggy": 7437,
      "Ġappears": 7438,
      "ĠJoy": 7439,
      "Ġziti": 7440,
      "Ġhardened": 7441,
      "Ġheads": 7442,
      "ĠBisque": 7443,
      "Ġtrial": 7444,
      "Ġcannot": 7445,
      "Ġseem": 7446,
      "Ġtamales": 7447,
      "Ġworry": 7448,
      "ĠPicnic": 7449,
      "Ġcrystall": 7450,
      "ĠRibbon": 7451,
      "Ġsuggested": 7452,
      "Ġachieve": 7453,
      "Ġnorthern": 7454,
      "ĠCacciatore": 7455,
      "220": 7456,
      "80": 7457,
      "DV": 7458,
      "Roni": 7459,
      "UCE": 7460,
      "gl": 7461,
      "licky": 7462,
      "pie": 7463,
      "will": 7464,
      "Ġbased": 7465,
      "esian": 7466,
      "icorn": 7467,
      "Ġcobs": 7468,
      "ĠBO": 7469,
      "ĠAle": 7470,
      "Ġsuper": 7471,
      "ĠMulled": 7472,
      "ĠMountain": 7473,
      "ĠFOR": 7474,
      "ieved": 7475,
      "Ġko": 7476,
      "Ġkiss": 7477,
      "loom": 7478,
      "ĠJar": 7479,
      "Ġrabe": 7480,
      "ousand": 7481,
      "Ġribb": 7482,
      "Ġsubmer": 7483,
      "ĠMirin": 7484,
      "Ġplaces": 7485,
      "Ġshreds": 7486,
      "Ġseaweed": 7487,
      "Ġseparated": 7488,
      "ĠSunshine": 7489,
      "Ġoverbeat": 7490,
      "Ġopened": 7491,
      "ĠTurkish": 7492,
      "ĠPicante": 7493,
      "Ġsilic": 7494,
      "ĠKids": 7495,
      "alloween": 7496,
      "uvres": 7497,
      "Ġdividing": 7498,
      "ĠLouis": 7499,
      "ĠSnickerdoodles": 7500,
      "ĠTuscan": 7501,
      "efinitely": 7502,
      "Ġribbons": 7503,
      "17": 7504,
      "From": 7505,
      "wesome": 7506,
      "Ġserves": 7507,
      "Ġcase": 7508,
      "ĠCe": 7509,
      "Ġchurn": 7510,
      "Ġsund": 7511,
      "Ġsult": 7512,
      "Ġhtt": 7513,
      "irloom": 7514,
      "ucks": 7515,
      "Ġbuttery": 7516,
      "ĠRasp": 7517,
      "ĠTips": 7518,
      "Ġspiced": 7519,
      "ĠHalloween": 7520,
      "agie": 7521,
      "Ġcarving": 7522,
      "ĠEither": 7523,
      "ĠKorean": 7524,
      "Ġgrapeseed": 7525,
      "Ġsealable": 7526,
      "Ġalongside": 7527,
      "Ġcases": 7528,
      "ĠClams": 7529,
      "ĠHeart": 7530,
      "Ġfrosted": 7531,
      "Potato": 7532,
      "accioli": 7533,
      "ĠLastly": 7534,
      "Ġmacadamia": 7535,
      "Ġparing": 7536,
      "Ġadobo": 7537,
      "ĠRainbow": 7538,
      "ĠCardamom": 7539,
      "DA": 7540,
      "large": 7541,
      "yche": 7542,
      "rees": 7543,
      "reak": 7544,
      "Ġbagg": 7545,
      "Ġmom": 7546,
      "Ġmess": 7547,
      "ĠSilk": 7548,
      "ĠAcorn": 7549,
      "ĠSpritz": 7550,
      "ĠSalami": 7551,
      "ands": 7552,
      "Ġkaiser": 7553,
      "Ġcarob": 7554,
      "Ġsettle": 7555,
      "ĠThan": 7556,
      "ermuda": 7557,
      "ĠMinutes": 7558,
      "Ġfettucini": 7559,
      "onzu": 7560,
      "Ġpreparation": 7561,
      "Ġescarole": 7562,
      "ĠLiqueur": 7563,
      "ĠKidney": 7564,
      "Ġmembrane": 7565,
      "Ġmicro": 7566,
      "ĠPimento": 7567,
      "iabatta": 7568,
      "Qu": 7569,
      "Rec": 7570,
      "appy": 7571,
      "py": 7572,
      "Ġsriracha": 7573,
      "Ġsince": 7574,
      "alape": 7575,
      "ĠCantaloupe": 7576,
      "Ġchowder": 7577,
      "ades": 7578,
      "Ġstretch": 7579,
      "Ġoverlap": 7580,
      "Ġcreaming": 7581,
      "Ġjasmine": 7582,
      "ĠStar": 7583,
      "coated": 7584,
      "Ġrocket": 7585,
      "Ġasiago": 7586,
      "armel": 7587,
      "Ġpecorino": 7588,
      "ĠGram": 7589,
      "Ġchilling": 7590,
      "Ġeng": 7591,
      "bleached": 7592,
      "Ġqueso": 7593,
      "oyu": 7594,
      "ĠMoj": 7595,
      "Ġbrick": 7596,
      "ĠLemony": 7597,
      "arina": 7598,
      "which": 7599,
      "ĠPanini": 7600,
      "ĠNect": 7601,
      "ĠCrusty": 7602,
      "ĠHearts": 7603,
      "ĠPlay": 7604,
      "ĠConfetti": 7605,
      "ĠAlternatively": 7606,
      "Ġdollops": 7607,
      "Ġhowever": 7608,
      "ĠPulled": 7609,
      "Ġserrated": 7610,
      "Ġmembranes": 7611,
      "ĠBitters": 7612,
      "Ġpumpernickel": 7613,
      "juice": 7614,
      "ĠSmothered": 7615,
      "65": 7616,
      "bons": 7617,
      "dog": 7618,
      "ending": 7619,
      "iqu": 7620,
      "ners": 7621,
      "Ġcass": 7622,
      "rect": 7623,
      "Ġbelly": 7624,
      "Ġhull": 7625,
      "Ġflounder": 7626,
      "ĠDec": 7627,
      "Ġthings": 7628,
      "Ġadditions": 7629,
      "ĠFashion": 7630,
      "ĠFestive": 7631,
      "ĠFriend": 7632,
      "ĠWasabi": 7633,
      "Ġselect": 7634,
      "ĠLip": 7635,
      "Ġbottomed": 7636,
      "Ġlock": 7637,
      "Ġgingerbread": 7638,
      "Ġcuracao": 7639,
      "Ġpoach": 7640,
      "Ġparticles": 7641,
      "Ġindic": 7642,
      "ĠPeachy": 7643,
      "uction": 7644,
      "apples": 7645,
      "Peanut": 7646,
      "ĠPorcup": 7647,
      "Ġbundle": 7648,
      "including": 7649,
      "abanero": 7650,
      "Ġartificial": 7651,
      "Recipes": 7652,
      "Ginger": 7653,
      "ICE": 7654,
      "fire": 7655,
      "ippy": 7656,
      "Ġsack": 7657,
      "ĠCam": 7658,
      "ours": 7659,
      "ĠPit": 7660,
      "Ġdisk": 7661,
      "ĠBuc": 7662,
      "ĠBus": 7663,
      "ĠBerries": 7664,
      "Ġunbleached": 7665,
      "ĠMussels": 7666,
      "ĠCond": 7667,
      "Ġrefresh": 7668,
      "tha": 7669,
      "Ġsplenda": 7670,
      "Ġcrisco": 7671,
      "eeter": 7672,
      "ĠEV": 7673,
      "Ġlose": 7674,
      "iscotti": 7675,
      "Ġbringing": 7676,
      "Ġthickening": 7677,
      "ĠSlide": 7678,
      "ĠCaramels": 7679,
      "Ġmex": 7680,
      "ĠWatergate": 7681,
      "Ġconcentr": 7682,
      "ĠGrandmother": 7683,
      "ĠAmazing": 7684,
      "ĠFool": 7685,
      "Ġ:).": 7686,
      "ĠTreat": 7687,
      "Ġvariation": 7688,
      "Ġachieved": 7689,
      "Ġfacing": 7690,
      "Ġnormal": 7691,
      "ĠUSDA": 7692,
      "ĠFudgy": 7693,
      "TM": 7694,
      "Ġiced": 7695,
      "Ġtrove": 7696,
      "Ġburritos": 7697,
      "Ġpizzas": 7698,
      "ĠBR": 7699,
      "Ġ175": 7700,
      "ĠMa": 7701,
      "ĠCom": 7702,
      "Ġvidalia": 7703,
      "mond": 7704,
      "ĠFigs": 7705,
      "ĠInst": 7706,
      "ĠHollow": 7707,
      "Ġros": 7708,
      "Ġarea": 7709,
      "Ġcarbon": 7710,
      "shi": 7711,
      "ĠVi": 7712,
      "Ġ135": 7713,
      "Ġstops": 7714,
      "ĠGarlicky": 7715,
      "Ġothers": 7716,
      "Ġbrat": 7717,
      "Ġamaretto": 7718,
      "ĠBrew": 7719,
      "ontina": 7720,
      "ĠLoaves": 7721,
      "ĠOranges": 7722,
      "Ġreduces": 7723,
      "Ġfloret": 7724,
      "ĠMyPl": 7725,
      "ĠMyRecipes": 7726,
      "ĠComplet": 7727,
      "Ġpurposes": 7728,
      "Ġsomething": 7729,
      "ĠManicotti": 7730,
      "ĠSTOVE": 7731,
      "Ġjelled": 7732,
      "ĠPartners": 7733,
      "ĠFranks": 7734,
      "ĠSAUCE": 7735,
      "Ġaromatic": 7736,
      "ĠParkay": 7737,
      "Ġchocolates": 7738,
      "preferably": 7739,
      "ĠMyPlate": 7740,
      "ĠPartnership": 7741,
      "Sweet": 7742,
      "em": 7743,
      "lon": 7744,
      "Ġq": 7745,
      "inis": 7746,
      "Ġsizes": 7747,
      "Ġsimmers": 7748,
      "ilian": 7749,
      "ĠCrowd": 7750,
      "Ġdiluted": 7751,
      "ĠBone": 7752,
      "ĠBuck": 7753,
      "Ġgives": 7754,
      "tilton": 7755,
      "Ġluncheon": 7756,
      "Ġsubs": 7757,
      "Ġholiday": 7758,
      "Ġ360": 7759,
      "Ġbeautif": 7760,
      "ĠRos": 7761,
      "chu": 7762,
      "ellen": 7763,
      "Ġspe": 7764,
      "ĠSpeed": 7765,
      "Ġmarks": 7766,
      "assail": 7767,
      "Ġang": 7768,
      "Ġkum": 7769,
      "ĠWhiskey": 7770,
      "Ġsmoothly": 7771,
      "ĠThigh": 7772,
      "Ġpotatos": 7773,
      "Ġrid": 7774,
      "Ġpits": 7775,
      "ĠCanned": 7776,
      "Ġ240": 7777,
      "ĠGlass": 7778,
      "approx": 7779,
      "Ġsmoker": 7780,
      "avourite": 7781,
      "EDI": 7782,
      "Mixture": 7783,
      "margarine": 7784,
      "Ġobtain": 7785,
      "ĠCordon": 7786,
      "ĠPLACE": 7787,
      "icorice": 7788,
      "ĠRaspberries": 7789,
      "keep": 7790,
      "vados": 7791,
      "ĠCu": 7792,
      "ĠCatfish": 7793,
      "Ġcole": 7794,
      "ĠBund": 7795,
      "ĠAM": 7796,
      "Ġhope": 7797,
      "ĠMAY": 7798,
      "irg": 7799,
      "Ġpepperoncini": 7800,
      "Ġadds": 7801,
      "ĠFit": 7802,
      "quef": 7803,
      "ĠLunch": 7804,
      "ĠLady": 7805,
      "ĠHors": 7806,
      "ĠSalted": 7807,
      "ĠCovered": 7808,
      "Ġdrying": 7809,
      "Ġplan": 7810,
      "ĠVersion": 7811,
      "ĠJELL": 7812,
      "iscus": 7813,
      "Ġcontaining": 7814,
      "ĠAla": 7815,
      "Ġdeer": 7816,
      "Ġdevil": 7817,
      "onster": 7818,
      "Ġsweeter": 7819,
      "ĠPoints": 7820,
      "ibiscus": 7821,
      "ĠMonte": 7822,
      "ĠScallions": 7823,
      "Ġherbes": 7824,
      "Ġseparating": 7825,
      "Ġsafflower": 7826,
      "ĠIndivid": 7827,
      "ĠSundae": 7828,
      "Ġflavours": 7829,
      "Ġcartons": 7830,
      "Ġinfuse": 7831,
      "ĠElegant": 7832,
      "ĠLima": 7833,
      "ĠKebabs": 7834,
      "Ġquantity": 7835,
      "ĠLipton": 7836,
      "down": 7837,
      "tou": 7838,
      "Ġcrescents": 7839,
      "Ġfarf": 7840,
      "Ġfusilli": 7841,
      "ĠCer": 7842,
      "ĠBav": 7843,
      "Ġgher": 7844,
      "ĠAtt": 7845,
      "Ġforget": 7846,
      "Ġvar": 7847,
      "ĠDeath": 7848,
      "rese": 7849,
      "ĠGather": 7850,
      "ĠHay": 7851,
      "Ġyours": 7852,
      "ellogg": 7853,
      "ĠMost": 7854,
      "ĠCarolina": 7855,
      "Ġpeeling": 7856,
      "ugu": 7857,
      "ĠDepending": 7858,
      "Ġcardamon": 7859,
      "ĠAvocados": 7860,
      "mixed": 7861,
      "errano": 7862,
      "Ġbottled": 7863,
      "Ġcaviar": 7864,
      "Ġbeetroot": 7865,
      "Ġattached": 7866,
      "uesli": 7867,
      "ĠChunk": 7868,
      "ĠSkewer": 7869,
      "Ġnormally": 7870,
      "ĠBloody": 7871,
      "soft": 7872,
      "Ġrendered": 7873,
      "Crusted": 7874,
      "ganic": 7875,
      "Ġwidth": 7876,
      "oncello": 7877,
      "ĠEVOO": 7878,
      "150": 7879,
      "VING": 7880,
      "bought": 7881,
      "fro": 7882,
      "gall": 7883,
      "pint": 7884,
      "zatz": 7885,
      "Ġtaken": 7886,
      "Ġbur": 7887,
      "Ġbites": 7888,
      "Ġfix": 7889,
      "RESS": 7890,
      "ital": 7891,
      "itter": 7892,
      "isbury": 7893,
      "Ġgingersnaps": 7894,
      "together": 7895,
      "ĠDone": 7896,
      "ĠDress": 7897,
      "ĠFR": 7898,
      "ĠStarter": 7899,
      "Ġrump": 7900,
      "Ġrutabag": 7901,
      "ĠSalisbury": 7902,
      "aren": 7903,
      "ĠSlit": 7904,
      "white": 7905,
      "Ġcolors": 7906,
      "Ġpoblano": 7907,
      "ĠDelights": 7908,
      "flake": 7909,
      "ĠAsiago": 7910,
      "ĠAntip": 7911,
      "ĠApply": 7912,
      "Ġcasing": 7913,
      "Ġregularly": 7914,
      "ĠMaraschino": 7915,
      "ĠCrusted": 7916,
      "ibb": 7917,
      "IGHT": 7918,
      "itron": 7919,
      "uscious": 7920,
      "Ġcurdle": 7921,
      "Ġomelette": 7922,
      "Tomato": 7923,
      "Ġhttp": 7924,
      "quefort": 7925,
      "uguese": 7926,
      "250": 7927,
      "Don": 7928,
      "With": 7929,
      "bin": 7930,
      "fly": 7931,
      "son": 7932,
      "squ": 7933,
      "tic": 7934,
      "tight": 7935,
      "vely": 7936,
      "Ġamber": 7937,
      "heas": 7938,
      "lemon": 7939,
      "ĠCenter": 7940,
      "ĠSE": 7941,
      "ĠSerrano": 7942,
      "asto": 7943,
      "ĠPen": 7944,
      "ĠPosition": 7945,
      "Ġgame": 7946,
      "Ġlicorice": 7947,
      "rapp": 7948,
      "using": 7949,
      "ĠRig": 7950,
      "ĠRellen": 7951,
      "ĠIts": 7952,
      "ĠDates": 7953,
      "ĠDilute": 7954,
      "Ġgram": 7955,
      "ĠChai": 7956,
      "ĠHair": 7957,
      "Ġskinned": 7958,
      "ando": 7959,
      "Ġmaybe": 7960,
      "Ġsmoother": 7961,
      "ĠJan": 7962,
      "ĠToasts": 7963,
      "Ġclusters": 7964,
      "Ġfilm": 7965,
      "ĠLoin": 7966,
      "Ġunderside": 7967,
      "Ġtines": 7968,
      "Ġfinishing": 7969,
      "Cover": 7970,
      "ĠJalapenos": 7971,
      "Ġkinds": 7972,
      "Ġcourget": 7973,
      "Ġribbon": 7974,
      "Ġrabbits": 7975,
      "ĠMelba": 7976,
      "Ġfritters": 7977,
      "ĠTBS": 7978,
      "Ġoreo": 7979,
      "ĠSuey": 7980,
      "ĠEasiest": 7981,
      "ackerel": 7982,
      "sprayed": 7983,
      "ĠMojito": 7984,
      "Ġcarbonated": 7985,
      "ĠBundles": 7986,
      "ĠBavarian": 7987,
      "gallon": 7988,
      "170": 7989,
      "Bread": 7990,
      "Bean": 7991,
      "Ra": 7992,
      "ha": 7993,
      "net": 7994,
      "pour": 7995,
      "sch": 7996,
      "Ġsat": 7997,
      "Ġfres": 7998,
      "enough": 7999,
      "ĠBits": 8000,
      "ĠAdo": 8001,
      "ĠAHE": 8002,
      "Ġchinese": 8003,
      "ridge": 8004,
      "ĠRoughly": 8005,
      "ĠTuck": 8006,
      "Ġnap": 8007,
      "ĠDRESS": 8008,
      "ĠWassail": 8009,
      "Ġrope": 8010,
      "Ġkabocha": 8011,
      "osable": 8012,
      "Ġcanes": 8013,
      "ĠKno": 8014,
      "Ġstores": 8015,
      "amember": 8016,
      "serts": 8017,
      "ifteen": 8018,
      "Ġflavorful": 8019,
      "ĠPressure": 8020,
      "aiqu": 8021,
      "Ġsurfaces": 8022,
      "ĠChilies": 8023,
      "Ġsits": 8024,
      "ude": 8025,
      "ĠPlant": 8026,
      "ĠGranita": 8027,
      "iwi": 8028,
      "minutes": 8029,
      "ĠNorth": 8030,
      "Ġfasten": 8031,
      "ĠPassion": 8032,
      "Ġbrewed": 8033,
      "borio": 8034,
      "ĠMuenster": 8035,
      "irgini": 8036,
      "zatziki": 8037,
      "ĠAHEAD": 8038,
      "ĠDRESSING": 8039,
      "amembert": 8040,
      "Good": 8041,
      "Se": 8042,
      "Sal": 8043,
      "Sugar": 8044,
      "aan": 8045,
      "ert": 8046,
      "Ġsort": 8047,
      "Ġcone": 8048,
      "Ġtent": 8049,
      "Ġbought": 8050,
      "Ġtost": 8051,
      "ĠSur": 8052,
      "Ġdisc": 8053,
      "Ġdairy": 8054,
      "ĠBottom": 8055,
      "Ġgot": 8056,
      "ĠComb": 8057,
      "ĠToll": 8058,
      "Ġwho": 8059,
      "stack": 8060,
      "ĠChia": 8061,
      "ĠChimich": 8062,
      "ĠInf": 8063,
      "Ġassemb": 8064,
      "bsters": 8065,
      "Ġmayonaise": 8066,
      "ĠSausages": 8067,
      "ĠJul": 8068,
      "ĠChews": 8069,
      "alepen": 8070,
      "ĠAnise": 8071,
      "Ġwanted": 8072,
      "Ġswir": 8073,
      "book": 8074,
      "Ġways": 8075,
      "Ġdepend": 8076,
      "Ġmanufacturers": 8077,
      "Ġcontinually": 8078,
      "Ġ234": 8079,
      "browns": 8080,
      "Ġstoring": 8081,
      "Ġwatching": 8082,
      "Ġbundles": 8083,
      "ĠCollins": 8084,
      "ĠSometimes": 8085,
      "Ġenglish": 8086,
      "ĠSpeedy": 8087,
      "ĠThighs": 8088,
      "Raisin": 8089,
      "Fl": 8090,
      "IM": 8091,
      "Oe": 8092,
      "Wrapped": 8093,
      "gian": 8094,
      "house": 8095,
      "put": 8096,
      "rem": 8097,
      "ilit": 8098,
      "Ġpli": 8099,
      "ĠCHE": 8100,
      "ĠCappuccino": 8101,
      "ĠSam": 8102,
      "orange": 8103,
      "Ġduty": 8104,
      "ĠBermuda": 8105,
      "Ġchickpea": 8106,
      "ĠMonster": 8107,
      "ĠTH": 8108,
      "Ġthru": 8109,
      "ĠFres": 8110,
      "ĠChuck": 8111,
      "Ġyam": 8112,
      "Ġyield": 8113,
      "ĠLuscious": 8114,
      "acky": 8115,
      "Ġskimm": 8116,
      "Ġaltogether": 8117,
      "ĠCutlets": 8118,
      "ĠNight": 8119,
      "ĠCheesecakes": 8120,
      "ĠKellogg": 8121,
      "Ġstemmed": 8122,
      "Ġextending": 8123,
      "Ġpuddings": 8124,
      "ogi": 8125,
      "ĠGarbanzo": 8126,
      "ĠTopped": 8127,
      "green": 8128,
      "Ġconsist": 8129,
      "fryer": 8130,
      "Ġruns": 8131,
      "ĠWatercress": 8132,
      "Ġsweat": 8133,
      "Ġtransferring": 8134,
      "Ġadhere": 8135,
      "Ġadapted": 8136,
      "ĠRaise": 8137,
      "Ġliner": 8138,
      "Ġdecorating": 8139,
      "ĠCaprese": 8140,
      "check": 8141,
      "accia": 8142,
      "ĠCarbon": 8143,
      "Ġsnacks": 8144,
      "Ġhollowed": 8145,
      "Ġpersonal": 8146,
      "ĠSliced": 8147,
      "Topped": 8148,
      "Ġmotion": 8149,
      "Ġokay": 8150,
      "Ġdisappears": 8151,
      "ĠEarth": 8152,
      "Ġsilicone": 8153,
      "ĠNectar": 8154,
      "Ġqts": 8155,
      "irginia": 8156,
      "Basil": 8157,
      "Egg": 8158,
      "Sa": 8159,
      "Ve": 8160,
      "Ġsound": 8161,
      "Ġpen": 8162,
      "Ġwisk": 8163,
      "READ": 8164,
      "icarb": 8165,
      "ĠSnapper": 8166,
      "ĠPale": 8167,
      "Ġsushi": 8168,
      "Ġhang": 8169,
      "iram": 8170,
      "idge": 8171,
      "ĠFizz": 8172,
      "ĠFabulous": 8173,
      "urri": 8174,
      "ĠLor": 8175,
      "ĠHens": 8176,
      "asseroles": 8177,
      "osh": 8178,
      "ĠNog": 8179,
      "ĠKent": 8180,
      "Ġlobsters": 8181,
      "Ġthickly": 8182,
      "ĠYam": 8183,
      "Ġquesadilla": 8184,
      "ĠBreaded": 8185,
      "sauce": 8186,
      "Ġdoing": 8187,
      "ĠTossed": 8188,
      "Ġpoached": 8189,
      "ĠCann": 8190,
      "Ġsemolina": 8191,
      "ĠPancetta": 8192,
      "Ġindefinitely": 8193,
      "Ġflattened": 8194,
      "ĠPapaya": 8195,
      "Ġtruffles": 8196,
      "ĠForest": 8197,
      "Ġflaxseed": 8198,
      "ĠRotate": 8199,
      "ĠOmelette": 8200,
      "ĠLeeks": 8201,
      "ĠBagel": 8202,
      "Ġstrands": 8203,
      "Ġstays": 8204,
      "ĠLatte": 8205,
      "Ġfajita": 8206,
      "Ġprovided": 8207,
      "Ġcrystallized": 8208,
      "EDIUM": 8209,
      "ĠIndividual": 8210,
      "ĠCerto": 8211,
      "andoori": 8212,
      "App": 8213,
      "Wh": 8214,
      "nese": 8215,
      "vable": 8216,
      "Ġir": 8217,
      "ergy": 8218,
      "Ġcraisins": 8219,
      "ndairy": 8220,
      "Ġbigg": 8221,
      "leave": 8222,
      "Ġgloves": 8223,
      "olo": 8224,
      "Ġsugared": 8225,
      "ĠMEDIUM": 8226,
      "ĠCointreau": 8227,
      "Ġwatery": 8228,
      "Ġ21": 8229,
      "ients": 8230,
      "Ġshoyu": 8231,
      "ĠLind": 8232,
      "ĠReally": 8233,
      "inny": 8234,
      "Ġdeglaze": 8235,
      "ĠJama": 8236,
      "ĠUN": 8237,
      "Ġstands": 8238,
      "Ġaccordingly": 8239,
      "oche": 8240,
      "ocaccia": 8241,
      "Ġlentil": 8242,
      "Ġnondairy": 8243,
      "ĠLook": 8244,
      "crumbs": 8245,
      "ĠMexicorn": 8246,
      "chocolate": 8247,
      "Ġdrinking": 8248,
      "ĠPlain": 8249,
      "Ġhoagie": 8250,
      "beans": 8251,
      "Ġpulled": 8252,
      "Ġcavities": 8253,
      "iku": 8254,
      "ĠWafer": 8255,
      "ĠSALAD": 8256,
      "Ġvisible": 8257,
      "ĠShallot": 8258,
      "ĠHandful": 8259,
      "affy": 8260,
      "ĠCaviar": 8261,
      "Ġpalms": 8262,
      "ĠBuckey": 8263,
      "ĠRigatoni": 8264,
      "CK": 8265,
      "ua": 8266,
      "xx": 8267,
      "recipe": 8268,
      "Ġbass": 8269,
      "Ġbuy": 8270,
      "Ġmus": 8271,
      "Ġmason": 8272,
      "anas": 8273,
      "anth": 8274,
      "ena": 8275,
      "ĠSirloin": 8276,
      "ĠBUT": 8277,
      "Ġsays": 8278,
      "ĠDrum": 8279,
      "iener": 8280,
      "Ġgreek": 8281,
      "Ġshanks": 8282,
      "Ġfroth": 8283,
      "Ġchoc": 8284,
      "Ġroots": 8285,
      "efish": 8286,
      "ĠOVER": 8287,
      "ardines": 8288,
      "ĠEye": 8289,
      "ĠVirginia": 8290,
      "Ġcutlet": 8291,
      "Ġyoung": 8292,
      "Ġdoughnuts": 8293,
      "ĠJew": 8294,
      "iants": 8295,
      "Ġsofter": 8296,
      "ĠShir": 8297,
      "ĠShoo": 8298,
      "ĠRoquefort": 8299,
      "ĠForgot": 8300,
      "ĠTurnip": 8301,
      "ĠSuggest": 8302,
      "Ġbroiled": 8303,
      "Ġgarnishes": 8304,
      "Ġdepress": 8305,
      "Ġtrimmed": 8306,
      "Ġboxes": 8307,
      "300": 8308,
      "ĠMartha": 8309,
      "chool": 8310,
      "Ġverde": 8311,
      "anche": 8312,
      "Ġstrings": 8313,
      "Ġtraditional": 8314,
      "Ġparsnip": 8315,
      "ĠTurmeric": 8316,
      "ĠPortuguese": 8317,
      "ĠMascarpone": 8318,
      "ĠWilted": 8319,
      "ĠBelgian": 8320,
      "Ġpliable": 8321,
      "Ġbigger": 8322,
      "An": 8323,
      "Ar": 8324,
      "LL": 8325,
      "Mint": 8326,
      "cat": 8327,
      "food": 8328,
      "mini": 8329,
      "pack": 8330,
      "sts": 8331,
      "uz": 8332,
      "ward": 8333,
      "Ġcitron": 8334,
      "Ġtried": 8335,
      "remove": 8336,
      "ENT": 8337,
      "Ġbuds": 8338,
      "Ġbody": 8339,
      "Ġbicarb": 8340,
      "Ġmil": 8341,
      "Ġphot": 8342,
      "oumi": 8343,
      "ĠCacao": 8344,
      "ĠSaturated": 8345,
      "ĠPlease": 8346,
      "ĠBarb": 8347,
      "ames": 8348,
      "Ġlyche": 8349,
      "ĠAioli": 8350,
      "otic": 8351,
      "ĠMam": 8352,
      "ĠCopper": 8353,
      "Ġstuck": 8354,
      "ghum": 8355,
      "imi": 8356,
      "ĠWell": 8357,
      "Ġshown": 8358,
      "egan": 8359,
      "Ġhotdog": 8360,
      "Ġkatakuriko": 8361,
      "ĠCreams": 8362,
      "should": 8363,
      "ccolini": 8364,
      "Ġstraws": 8365,
      "Ġdirection": 8366,
      "ĠThousand": 8367,
      "angos": 8368,
      "ĠBeefy": 8369,
      "ĠSweeten": 8370,
      "Ġindent": 8371,
      "aily": 8372,
      "ĠCalvados": 8373,
      "Ġlimas": 8374,
      "Ġjackets": 8375,
      "Ġpushing": 8376,
      "ĠFrank": 8377,
      "ĠEndive": 8378,
      "Ġblossoms": 8379,
      "Ġdisposable": 8380,
      "heasant": 8381,
      "ĠKentucky": 8382,
      "ĠForgotten": 8383,
      "230": 8384,
      "Mores": 8385,
      "br": 8386,
      "cass": 8387,
      "ires": 8388,
      "van": 8389,
      "Ġsambal": 8390,
      "Ġciabatta": 8391,
      "Ġcarmel": 8392,
      "Ġplease": 8393,
      "Ġparboil": 8394,
      "Ġinver": 8395,
      "Ġfavourite": 8396,
      "ĠCHI": 8397,
      "ĠSU": 8398,
      "rol": 8399,
      "ĠBase": 8400,
      "ĠMid": 8401,
      "ĠRight": 8402,
      "Ġrel": 8403,
      "asta": 8404,
      "Ġtomatos": 8405,
      "ĠSaff": 8406,
      "Ġheld": 8407,
      "ĠKraut": 8408,
      "pari": 8409,
      "Ġscal": 8410,
      "Ġaccum": 8411,
      "iscuits": 8412,
      "Ġhandled": 8413,
      "istur": 8414,
      "pect": 8415,
      "ullion": 8416,
      "ĠFruitcake": 8417,
      "ĠZiti": 8418,
      "ĠGingered": 8419,
      "ĠFrosty": 8420,
      "ĠPopovers": 8421,
      "ĠMolded": 8422,
      "ĠIii": 8423,
      "overnight": 8424,
      "Ġaubergine": 8425,
      "fourths": 8426,
      "Ġproperly": 8427,
      "Ġjerk": 8428,
      "Ġchefs": 8429,
      "Ġyourself": 8430,
      "ĠAntipasto": 8431,
      "ĠAdobo": 8432,
      "aiquiri": 8433,
      "ĠCarbonara": 8434,
      "ĠPaleo": 8435,
      "Batter": 8436,
      "Place": 8437,
      "dy": 8438,
      "fric": 8439,
      "ja": 8440,
      "lot": 8441,
      "off": 8442,
      "rami": 8443,
      "viche": 8444,
      "erate": 8445,
      "Ġmacaroons": 8446,
      "Ġmangos": 8447,
      "ati": 8448,
      "uton": 8449,
      "anache": 8450,
      "ĠSix": 8451,
      "ĠStilton": 8452,
      "garitas": 8453,
      "Ġhouse": 8454,
      "Ġsalts": 8455,
      "ĠCopy": 8456,
      "ĠTar": 8457,
      "change": 8458,
      "Ġnachos": 8459,
      "oiled": 8460,
      "Ġwells": 8461,
      "colator": 8462,
      "ĠRem": 8463,
      "ĠOur": 8464,
      "Ġsoap": 8465,
      "ĠVER": 8466,
      "ĠNan": 8467,
      "Ġhemp": 8468,
      "ĠYOU": 8469,
      "abbit": 8470,
      "ĠTost": 8471,
      "Ġhandfuls": 8472,
      "ĠQuesadilla": 8473,
      "ĠStop": 8474,
      "Ġclump": 8475,
      "Ġfolded": 8476,
      "Ġpopping": 8477,
      "ongo": 8478,
      "Ġtrimm": 8479,
      "Ġmeasured": 8480,
      "ermark": 8481,
      "ĠSmashed": 8482,
      "Ġvert": 8483,
      "ĠBarrel": 8484,
      "Ġprune": 8485,
      "Ġcyl": 8486,
      "ĠMincemeat": 8487,
      "ĠCashews": 8488,
      "ĠPortobello": 8489,
      "ĠLeftovers": 8490,
      "Ġsupermark": 8491,
      "Ġbuckwheat": 8492,
      "Ġperiodically": 8493,
      "ĠDeglaze": 8494,
      "Ġbisquick": 8495,
      "Ġmulti": 8496,
      "ĠBOIL": 8497,
      "ĠCondensed": 8498,
      "Ġangle": 8499,
      "ĠAttach": 8500,
      "ĠVERY": 8501,
      "ID": 8502,
      "IE": 8503,
      "beat": 8504,
      "ched": 8505,
      "dairy": 8506,
      "mly": 8507,
      "rition": 8508,
      "sour": 8509,
      "Ġscones": 8510,
      "Ġcatch": 8511,
      "esqu": 8512,
      "estershire": 8513,
      "Ġmeringues": 8514,
      "held": 8515,
      "Ġpare": 8516,
      "alina": 8517,
      "ĠPrawns": 8518,
      "Ġcores": 8519,
      "ĠBL": 8520,
      "acado": 8521,
      "Ġgiving": 8522,
      "Ġsaved": 8523,
      "ĠRabbit": 8524,
      "Ġ26": 8525,
      "ĠFillet": 8526,
      "ĠFull": 8527,
      "ĠGi": 8528,
      "Ġtend": 8529,
      "rinkles": 8530,
      "othing": 8531,
      "ĠOF": 8532,
      "Ġmeatball": 8533,
      "ĠSauted": 8534,
      "Ġsquir": 8535,
      "Ġ130": 8536,
      "Ġhearty": 8537,
      "ĠKiwi": 8538,
      "ĠChoice": 8539,
      "ĠThick": 8540,
      "Ġsauteing": 8541,
      "ĠTodd": 8542,
      "ĠPeppered": 8543,
      "ĠCarol": 8544,
      "ĠCaraway": 8545,
      "roximate": 8546,
      "Ġdehydr": 8547,
      "ranberry": 8548,
      "ĠCrispies": 8549,
      "ĠCrustless": 8550,
      "ATION": 8551,
      "ĠTartar": 8552,
      "Ġrising": 8553,
      "Pepper": 8554,
      "ĠRounds": 8555,
      "degree": 8556,
      "Ġingrediants": 8557,
      "Ġdelicately": 8558,
      "ĠChestnuts": 8559,
      "ĠMilnot": 8560,
      "Ġswirling": 8561,
      ".-": 8562,
      "Cranberry": 8563,
      "Herb": 8564,
      "Mustard": 8565,
      "cium": 8566,
      "iously": 8567,
      "luck": 8568,
      "pound": 8569,
      "sel": 8570,
      "they": 8571,
      "wick": 8572,
      "ĠRECIPE": 8573,
      "inf": 8574,
      "Ġmahi": 8575,
      "Ġinner": 8576,
      "ĠCor": 8577,
      "ĠSmear": 8578,
      "isu": 8579,
      "Ġgift": 8580,
      "Ġchive": 8581,
      "Ġsuet": 8582,
      "irsch": 8583,
      "uchen": 8584,
      "ucted": 8585,
      "raine": 8586,
      "Ġneat": 8587,
      "Ġspec": 8588,
      "eather": 8589,
      "quake": 8590,
      "ĠLite": 8591,
      "Ġfronds": 8592,
      "hentic": 8593,
      "ĠOnly": 8594,
      "ĠBoiling": 8595,
      "ival": 8596,
      "Ġcrostini": 8597,
      "ĠBruns": 8598,
      "ĠFlavored": 8599,
      "Ġcurly": 8600,
      "Ġfourth": 8601,
      "ĠApproximately": 8602,
      "Ġswitch": 8603,
      "Ġpresentation": 8604,
      "Ġblister": 8605,
      "ĠCrispix": 8606,
      "ĠDeer": 8607,
      "ĠKrispie": 8608,
      "Ġequals": 8609,
      "Ġhashbrowns": 8610,
      "ĠPoach": 8611,
      "Ġwrapping": 8612,
      "Ġhomo": 8613,
      "eezed": 8614,
      "addy": 8615,
      "ĠBox": 8616,
      "ĠWaffle": 8617,
      "Ġappearance": 8618,
      "Ġmarked": 8619,
      "ĠBoysen": 8620,
      "ĠBubble": 8621,
      "ĠCrystal": 8622,
      "combined": 8623,
      "ĠPorcupine": 8624,
      "Ġconsistancy": 8625,
      "anthan": 8626,
      "Ġphoto": 8627,
      "ĠSaffron": 8628,
      "Ġcylinder": 8629,
      "High": 8630,
      "Note": 8631,
      "Vegan": 8632,
      "bi": 8633,
      "di": 8634,
      "ked": 8635,
      "non": 8636,
      "simmer": 8637,
      "wood": 8638,
      "ĠLE": 8639,
      "Ġaj": 8640,
      "Ġage": 8641,
      "Ġaioli": 8642,
      "Ġsaturated": 8643,
      "Ġcalls": 8644,
      "Ġta": 8645,
      "ndon": 8646,
      "iles": 8647,
      "uture": 8648,
      "Ġfaster": 8649,
      "Ġfifteen": 8650,
      "onn": 8651,
      "oule": 8652,
      "anter": 8653,
      "ington": 8654,
      "leased": 8655,
      "ĠSmall": 8656,
      "ĠSides": 8657,
      "Ġdig": 8658,
      "Ġdilute": 8659,
      "ĠBEAT": 8660,
      "Ġgizz": 8661,
      "Ġgumbo": 8662,
      "ĠAwesome": 8663,
      "ĠTaffy": 8664,
      "though": 8665,
      "ĠFri": 8666,
      "oila": 8667,
      "ĠLavender": 8668,
      "ĠReg": 8669,
      "ĠRefri": 8670,
      "Ġmarsal": 8671,
      "Ġrow": 8672,
      "Ġreme": 8673,
      "opened": 8674,
      "Ġslash": 8675,
      "Ġslurry": 8676,
      "Ġmeaty": 8677,
      "ĠEtou": 8678,
      "Ġdesserts": 8679,
      "ĠJean": 8680,
      "ĠChoco": 8681,
      "Ġmozz": 8682,
      "Ġfirmer": 8683,
      "eeds": 8684,
      "Ġhandling": 8685,
      "indow": 8686,
      "Ġaged": 8687,
      "ĠDeli": 8688,
      "ĠLove": 8689,
      "Ġsnipped": 8690,
      "ĠPockets": 8691,
      "Ġmostaccioli": 8692,
      "Ġentirely": 8693,
      "Ġnectarine": 8694,
      "ĠDilly": 8695,
      "ATER": 8696,
      "ĠTruffle": 8697,
      "ĠExtract": 8698,
      "ĠFirmly": 8699,
      "ĠFettucine": 8700,
      "wheel": 8701,
      "ĠIngredient": 8702,
      "ĠTwinkie": 8703,
      "Ġearly": 8704,
      "--------": 8705,
      "Ġaroma": 8706,
      "ĠCuban": 8707,
      "Broccoli": 8708,
      "Ġsultanas": 8709,
      "Ġdeviled": 8710,
      "ĠEarthquake": 8711,
      "ĠLorraine": 8712,
      "ikuwa": 8713,
      "ĠBrunswick": 8714,
      "Ġmarsala": 8715,
      "Corn": 8716,
      "Heat": 8717,
      "ipper": 8718,
      "oise": 8719,
      "po": 8720,
      "sk": 8721,
      "serve": 8722,
      "Ġcasseroles": 8723,
      "redd": 8724,
      "Ġbleu": 8725,
      "Ġmillet": 8726,
      "Ġfar": 8727,
      "Ġfuture": 8728,
      "ingly": 8729,
      "ĠCle": 8730,
      "ĠCrescents": 8731,
      "ĠCloves": 8732,
      "ĠSil": 8733,
      "ĠSee": 8734,
      "ĠServed": 8735,
      "ĠSieve": 8736,
      "ĠBing": 8737,
      "aca": 8738,
      "Ġlat": 8739,
      "Ġorganic": 8740,
      "etit": 8741,
      "ĠWont": 8742,
      "oman": 8743,
      "ĠLaw": 8744,
      "ĠHello": 8745,
      "Ġkrisp": 8746,
      "aged": 8747,
      "Ġplay": 8748,
      "ĠNice": 8749,
      "Ġhighest": 8750,
      "Ġarrang": 8751,
      "Ġdeter": 8752,
      "pled": 8753,
      "enedict": 8754,
      "Ġparties": 8755,
      "ĠProsecco": 8756,
      "ational": 8757,
      "Ġsubstituting": 8758,
      "Ġboned": 8759,
      "Ġrotate": 8760,
      "ĠGoes": 8761,
      "ronger": 8762,
      "Ġkiwis": 8763,
      "ĠSnowball": 8764,
      "Ġmiracle": 8765,
      "ĠDirty": 8766,
      "ĠMadeira": 8767,
      "ĠSERVING": 8768,
      "ĠLouisiana": 8769,
      "Quick": 8770,
      "ĠBusy": 8771,
      "Ġbratwurst": 8772,
      "ĠCompletely": 8773,
      "ĠHaystack": 8774,
      "iramisu": 8775,
      ".(": 8776,
      "AST": 8777,
      "Make": 8778,
      "Put": 8779,
      "cipes": 8780,
      "discard": 8781,
      "pat": 8782,
      "uke": 8783,
      "wide": 8784,
      "when": 8785,
      "Ġcel": 8786,
      "Ġinten": 8787,
      "onate": 8788,
      "eno": 8789,
      "ĠSan": 8790,
      "Ġ125": 8791,
      "Ġunused": 8792,
      "Ġunopened": 8793,
      "Ġlg": 8794,
      "Ġmints": 8795,
      "Ġpeek": 8796,
      "ĠMic": 8797,
      "Ġ370": 8798,
      "Ġstronger": 8799,
      "ĠTIP": 8800,
      "Ġreleased": 8801,
      "Ġvitamin": 8802,
      "Ġleg": 8803,
      "ĠDI": 8804,
      "Ġspin": 8805,
      "Ġspins": 8806,
      "ĠFancy": 8807,
      "ience": 8808,
      "resist": 8809,
      "ĠChick": 8810,
      "Ġshakes": 8811,
      "ĠLIGHT": 8812,
      "ĠGri": 8813,
      "cool": 8814,
      "olds": 8815,
      "ĠOh": 8816,
      "ĠOle": 8817,
      "agli": 8818,
      "Ġsett": 8819,
      "ĠWhites": 8820,
      "reasing": 8821,
      "ĠJicama": 8822,
      "tti": 8823,
      "ĠUs": 8824,
      "Ġtwelve": 8825,
      "Ġtwenty": 8826,
      "ĠLeaf": 8827,
      "ĠPepperidge": 8828,
      "ĠQue": 8829,
      "ĠStraws": 8830,
      "Ġgranular": 8831,
      "ĠCloud": 8832,
      "ormick": 8833,
      "ĠJuli": 8834,
      "ĠSmoothies": 8835,
      "Ġshaping": 8836,
      "Ġguava": 8837,
      "Ġscraps": 8838,
      "ĠDilled": 8839,
      "Ġscrub": 8840,
      "Spice": 8841,
      "ĠHoisin": 8842,
      "Almond": 8843,
      "ingersnap": 8844,
      "Ġdidn": 8845,
      "Ġelephant": 8846,
      "ĠCarbohydrate": 8847,
      "seasoned": 8848,
      "ĠBlossoms": 8849,
      "Great": 8850,
      "Ġindicated": 8851,
      "anchego": 8852,
      "ouleh": 8853,
      "Bacon": 8854,
      "PING": 8855,
      "SC": 8856,
      "Top": 8857,
      "Yields": 8858,
      "bing": 8859,
      "bel": 8860,
      "cer": 8861,
      "line": 8862,
      "oam": 8863,
      "small": 8864,
      "Ġ..": 8865,
      "era": 8866,
      "Ġtapenade": 8867,
      "Ġbullion": 8868,
      "Ġmudd": 8869,
      "ilt": 8870,
      "ense": 8871,
      "aluminum": 8872,
      "ĠCola": 8873,
      "ĠCongo": 8874,
      "ĠSar": 8875,
      "ĠSus": 8876,
      "ĠSna": 8877,
      "rown": 8878,
      "ĠPurp": 8879,
      "Ġdr": 8880,
      "Ġdraw": 8881,
      "Ġdaily": 8882,
      "ĠBac": 8883,
      "ĠBurrito": 8884,
      "Ġunroll": 8885,
      "Ġlines": 8886,
      "ĠMad": 8887,
      "ĠManchego": 8888,
      "etnam": 8889,
      "Ġcreamier": 8890,
      "Ġ27": 8891,
      "ĠDew": 8892,
      "iders": 8893,
      "ĠFr": 8894,
      "ĠFrapp": 8895,
      "Ġjuicer": 8896,
      "Ġpots": 8897,
      "ĠHappy": 8898,
      "oons": 8899,
      "Ġslip": 8900,
      "uffin": 8901,
      "ĠPeople": 8902,
      "rawberry": 8903,
      "reeze": 8904,
      "ĠKick": 8905,
      "ĠBear": 8906,
      "Ġenamel": 8907,
      "ĠChoose": 8908,
      "Ġuses": 8909,
      "Ġwhisky": 8910,
      "ĠSimmered": 8911,
      "Ġhamburgers": 8912,
      "Ġtoasty": 8913,
      "ugel": 8914,
      "rength": 8915,
      "ĠChiles": 8916,
      "ĠPecorino": 8917,
      "Ġgoose": 8918,
      "Ġherring": 8919,
      "Ġstarted": 8920,
      "Ġtoweling": 8921,
      "Ġburnt": 8922,
      "ĠRuby": 8923,
      "Ġpinching": 8924,
      "Ġpicnic": 8925,
      "ĠDonuts": 8926,
      "Ġoutsides": 8927,
      "Cooked": 8928,
      "ĠIron": 8929,
      "Ġcontent": 8930,
      "Ġdisol": 8931,
      "Ġmillilit": 8932,
      "Ġrequire": 8933,
      "ĠFeel": 8934,
      "Ġcorrect": 8935,
      "Ġsorghum": 8936,
      "ĠBailey": 8937,
      "Ġmexican": 8938,
      "ĠMAYER": 8939,
      "binado": 8940,
      "ĠSurround": 8941,
      "ĠJamaican": 8942,
      "ĠPurple": 8943,
      "Ġmilliliters": 8944,
      "Raspberry": 8945,
      "UST": 8946,
      "ds": 8947,
      "lor": 8948,
      "ni": 8949,
      "ral": 8950,
      "uk": 8951,
      "Ġsardines": 8952,
      "Ġca": 8953,
      "Ġbakes": 8954,
      "Ġmm": 8955,
      "Ġpam": 8956,
      "Ġpilaf": 8957,
      "atat": 8958,
      "atto": 8959,
      "Ġfen": 8960,
      "ality": 8961,
      "ĠCass": 8962,
      "orge": 8963,
      "ĠBack": 8964,
      "acy": 8965,
      "ĠAfric": 8966,
      "Ġhabanero": 8967,
      "Ġvents": 8968,
      "Ġheats": 8969,
      "ĠWest": 8970,
      "color": 8971,
      "bert": 8972,
      "egian": 8973,
      "ĠOff": 8974,
      "Ġxanthan": 8975,
      "ĠEmer": 8976,
      "ĠNap": 8977,
      "Ġsquirt": 8978,
      "ĠSepar": 8979,
      "ĠYUM": 8980,
      "Ġcontrol": 8981,
      "Ġstout": 8982,
      "Ġpotatoe": 8983,
      "Ġcontains": 8984,
      "Ġcrouton": 8985,
      "ĠFlor": 8986,
      "Ġcoming": 8987,
      "ĠLemons": 8988,
      "Ġdoubles": 8989,
      "ĠCanapes": 8990,
      "irty": 8991,
      "ĠPanko": 8992,
      "Ġcasings": 8993,
      "udites": 8994,
      "ĠMaria": 8995,
      "ĠMargaritas": 8996,
      "ĠSmith": 8997,
      "Ġdropping": 8998,
      "Ġmedallions": 8999,
      "ĠHamburgers": 9000,
      "ĠFlatbread": 9001,
      "Stir": 9002,
      "Coconut": 9003,
      "Ġlifting": 9004,
      "Ġcollards": 9005,
      "ĠBonbons": 9006,
      "ĠJohnny": 9007,
      "Ġplantain": 9008,
      "ĠMelts": 9009,
      "degrees": 9010,
      "Ġtbls": 9011,
      "ĠRestaurant": 9012,
      "ĠCarbohydrates": 9013,
      "ĠParmigiano": 9014,
      "Diabetic": 9015,
      "alapeo": 9016,
      "ĠCampari": 9017,
      "Ġkumqu": 9018,
      "frozen": 9019,
      "ĠRellenos": 9020,
      "ĠChimichurri": 9021,
      "ĠCopycat": 9022,
      "etnamese": 9023,
      "Ab": 9024,
      "Berry": 9025,
      "Hot": 9026,
      "ORE": 9027,
      "Serve": 9028,
      "aven": 9029,
      "bird": 9030,
      "ele": 9031,
      "hatt": 9032,
      "makes": 9033,
      "soup": 9034,
      "test": 9035,
      "zos": 9036,
      "inding": 9037,
      "erment": 9038,
      "hell": 9039,
      "RED": 9040,
      "ĠCot": 9041,
      "ĠClo": 9042,
      "ĠCamembert": 9043,
      "ĠSL": 9044,
      "ĠSin": 9045,
      "akers": 9046,
      "ĠPizz": 9047,
      "ĠBir": 9048,
      "ottle": 9049,
      "ĠMust": 9050,
      "ĠCognac": 9051,
      "ĠTiramisu": 9052,
      "Ġvine": 9053,
      "Ġjalepen": 9054,
      "ĠII": 9055,
      "ĠDaddy": 9056,
      "imin": 9057,
      "ĠFrang": 9058,
      "monterey": 9059,
      "Ġshut": 9060,
      "Ġshiso": 9061,
      "ĠGingersnaps": 9062,
      "ĠReyn": 9063,
      "combine": 9064,
      "Ġkim": 9065,
      "Ġ155": 9066,
      "member": 9067,
      "Ġpourable": 9068,
      "ĠVitamin": 9069,
      "ĠNatural": 9070,
      "ĠNestle": 9071,
      "ĠGrass": 9072,
      "ĠKit": 9073,
      "ĠKatakuriko": 9074,
      "ogies": 9075,
      "ĠBreadcrumbs": 9076,
      "ĠCornflake": 9077,
      "Ġtowards": 9078,
      "Ġballer": 9079,
      "Ġgarnishing": 9080,
      "ĠAlways": 9081,
      "Ġmeanwhile": 9082,
      "ĠScott": 9083,
      "ĠBlackberries": 9084,
      "ĠLoaded": 9085,
      "Ġincre": 9086,
      "ĠAng": 9087,
      "Ġdarker": 9088,
      "Ġblot": 9089,
      "Ġcheesy": 9090,
      "process": 9091,
      "Ġelder": 9092,
      "Ġinstructed": 9093,
      "Ġpineapples": 9094,
      "ĠBlank": 9095,
      "Ġpulling": 9096,
      "Ġdumpling": 9097,
      "ĠCaper": 9098,
      "Ġdampened": 9099,
      "Ġwheels": 9100,
      "ĠPopsicles": 9101,
      "ĠGeorg": 9102,
      "ĠEdamame": 9103,
      "Ġdisappear": 9104,
      "Onion": 9105,
      "ĠPennies": 9106,
      "ĠProvence": 9107,
      "ylvan": 9108,
      "oursin": 9109,
      "Ġfresco": 9110,
      "Oeuvres": 9111,
      "ĠLinda": 9112,
      "ĠBuckeyes": 9113,
      "Ġaccumulated": 9114,
      "Ġremember": 9115,
      "GG": 9116,
      "band": 9117,
      "based": 9118,
      "fir": 9119,
      "from": 9120,
      "mushroom": 9121,
      "wegian": 9122,
      "Ġtang": 9123,
      "Ġmackerel": 9124,
      "atini": 9125,
      "Ġudon": 9126,
      "ĠBill": 9127,
      "ĠBug": 9128,
      "ĠBraz": 9129,
      "ĠBenedict": 9130,
      "acing": 9131,
      "Ġeigh": 9132,
      "ĠMIN": 9133,
      "Ġ33": 9134,
      "esean": 9135,
      "chicken": 9136,
      "ids": 9137,
      "ĠWeek": 9138,
      "Ġshrink": 9139,
      "ĠLush": 9140,
      "Ġpiecrust": 9141,
      "ifter": 9142,
      "Ġskirt": 9143,
[...]
